/**
  ******************************************************************************
  * @file    network_data.c
  * @author  AST Embedded Analytics Research Platform
  * @date    Mon Jul  5 14:54:50 2021
  * @brief   AI Tool Automatic Code Generator for Embedded NN computing
  ******************************************************************************
  * @attention
  *
  * Copyright (c) 2021 STMicroelectronics.
  * All rights reserved.
  *
  * This software component is licensed by ST under Ultimate Liberty license
  * SLA0044, the "License"; You may not use this file except in compliance with
  * the License. You may obtain a copy of the License at:
  *                             www.st.com/SLA0044
  *
  ******************************************************************************
  */
#include "network_data.h"
#include "ai_platform_interface.h"


AI_ALIGNED(32)
const ai_u64 s_network_weights_array_u64[ 19578 ] = {
  0xbe9d1385bd326561U, 0xbea2ac993e16aad1U, 0x3c0ac6eabe4e6b07U, 0x3e529a663e78f25fU,
  0x3deff94dbe1ed168U, 0xbdf31e23be3cb62bU, 0x3ea294f73dbf9094U, 0xbe27f43e3e8e9e64U,
  0xbd271a833e8b3627U, 0x3e1330eb3e110bc1U, 0x3ea9690fbe7f0761U, 0xbdb57b7b3e28257bU,
  0x3e7860483eb41800U, 0xbe2bb4503e86de42U, 0x3b47603b3eafe9e0U, 0x3ec9b0ca3e233be9U,
  0x3d3987863e17a579U, 0xbe981f80bdbfbe4bU, 0x3ddb042b3eab7d58U, 0xbe01b1b73e0a7fc4U,
  0xbc43d2bc3e1fd727U, 0x3e110cb7be5c0073U, 0xbd3c42cd3e09ebefU, 0x3deb1c213e2365e2U,
  0xbcfd93353ea76953U, 0xbd0f29e6beb8a554U, 0xbea6f6c4bdae6604U, 0x3ebadd5bbe94ebc7U,
  0xbd8eb8f23e3ff3a4U, 0x3db7445d3dd9cb44U, 0x3e2b3a1f3d3cbf7bU, 0x3ea8b8f1be4a5e2cU,
  0xbe513824bcc34b9dU, 0xbe21ee4ebe0dc624U, 0x3e9ec7f33ecccbb8U, 0x3c00d35f3e0b0e5fU,
  0xbe8df7433ea76af5U, 0xbd9127833e6d00ceU, 0x3e7bc92cbd84bddcU, 0xbd83c27fbe42b659U,
  0xbb309c01bc828350U, 0xbe720bb63e6e551fU, 0xbe159a7f3e693ef9U, 0x3e0f51adbe94534bU,
  0xbe07648d3db68d92U, 0x3e4212483e236dd6U, 0x3e9ad4653e1aa44cU, 0x3d66f53d3e2a6514U,
  0x3c4cf61ebe56befaU, 0xbec8764dbe0799feU, 0x3d24bc53be543ea6U, 0x3e924f42be4ef514U,
  0xbe141a15be62900cU, 0x3ea1b57c3e6d942fU, 0x3ddcb229bd50b731U, 0x3e6cb7183e41d832U,
  0x3c96fefa3eb881c7U, 0x3e54b1b53e523595U, 0x3e3923e2bdf95f46U, 0xbdbb8b73be907758U,
  0x3dfdc3803d9e9f00U, 0xbd9149a83e45e555U, 0x3e36a88c3e5ed960U, 0x3e9284efbe781913U,
  0xbdb36ccbbe9fbef4U, 0x3e5d0f423e2d55d8U, 0x3edf294f3e2ca0e3U, 0x3d95a3753d95300aU,
  0x3ddf91babcd23d34U, 0x3e3d2fccbeb8e57cU, 0xbeaf703c3e92efccU, 0xbe38065c3c87b252U,
  0xbdc79293bdd2bb24U, 0x3e0121573d89dc1bU, 0xbd0560203d2f9e45U, 0xbd86ea28bd87ee12U,
  0x3d4caa13bd9780ceU, 0xbdc838b6bdc61767U, 0xbd900486bdb9a2d9U, 0x3d9aa2b93dc75b20U,
  0xbe27694f3e8a2124U, 0x3d9be9b23d5ee346U, 0x3e72050ebe13553fU, 0x3d812fc93eab4441U,
  0xbbf480c8bdf74cc9U, 0x3d9bed83be0fc949U, 0x3e7a68283e5fa13eU, 0xbe2f8aacbdbc3bb4U,
  0xbe69847bbd629c30U, 0xbe6451eb3dec5feeU, 0xbe758915be6add41U, 0x3e9678e6be226356U,
  0xbe1c667d3c6cced3U, 0x3e5e16f13e6ebff9U, 0xbde1b78ebd0ffbc7U, 0x3ea38ab13e82fbe3U,
  0x3e7a9161bda2d256U, 0xbe12f77c3e755ed8U, 0xbdd1688cbd85bcdeU, 0x3ed4d0c6be175995U,
  0xba749070bdc7e3fdU, 0x3e660f233e3c1541U, 0xbd459cec3da5770aU, 0x3d2e6630bd04e49bU,
  0x3e387aa33e47d263U, 0x3e214ef9bdfca3f7U, 0xbe23cb5abdbd7efbU, 0xbe791eeabc682931U,
  0x3d7e8637be9e7b39U, 0x3dca44e33de4ac81U, 0xbe6bed373e48bf57U, 0x3d9a0af73ec66c94U,
  0x3e436abbbe90f945U, 0xbd0427cb3db51633U, 0x3e8c245f3cd59228U, 0xbe3e807b3e606b81U,
  0x3e565d59be4bbe2bU, 0xbe680563be74ad45U, 0xbe6e97123de92c2aU, 0xbda5ac6c3e610c8dU,
  0x3c9c56f5be8b0eaaU, 0x3e91bfbbbd9248b2U, 0x3e5cd5ef3e1048efU, 0xbe56b943bdc23943U,
  0x3e40a4b23e4769f3U, 0xbe63349d3e568971U, 0xbe3ec5d9be3aa8eaU, 0x3e8c6b893eaac2bfU,
  0xbe39daa73ece6cabU, 0xbe81b669be03d4eaU, 0x3e1c4e9ebdfcc074U, 0xbd947e8bbdc0b8b2U,
  0x3da70c7d3e9d3ef6U, 0xbdc3c6bbbca3dd0eU, 0x3ee1a1b1bd21e3ffU, 0xbe38ffd2bea8aee3U,
  0x3e09127c3dcfb405U, 0xbe5436b23d294099U, 0x3e4eda6dbe49bfe7U, 0x3b959fd2be54da5aU,
  0x3bdc2a11bd133b54U, 0x3e7fea67be97fd90U, 0x3eb0e3c7bdcae121U, 0xbdd60e7b3e5cc0f7U,
  0x3e461e163ec59328U, 0x3e277cf63cb34ddcU, 0xbe59ea88be5c9cc1U, 0x3e8a13333df66cedU,
  0xbe876e2f3c6036e7U, 0xbb1c3c20be9c4648U, 0x3e7952e6bd031fe6U, 0x3e62dd9bbc3db8e4U,
  0x3e94101b3d39cf3cU, 0xbdf84401be5014f3U, 0x3d7151ee3e8b5df8U, 0x3e23d5983e2261a2U,
  0x3e88b4233e3e9495U, 0xbe119ee83dac0502U, 0x3e95e5cd3d5269d6U, 0x3e067f43be56aa20U,
  0x3e8a5c293ec050c6U, 0x3c5ba01a3e184cb3U, 0x3e75b3e4be5b41bdU, 0x3c92a47d3b7a2e22U,
  0xbdcd2c6ebe170ccbU, 0x3e9e3b503e7df84bU, 0x3ea0d64b3d90fcb6U, 0x3d93a66dbe845777U,
  0x3e3229063e403257U, 0xbe1ee29cbda72e16U, 0xbe4434203de5dff7U, 0x3c2fd87a3e912e57U,
  0xbe5b590dbdc6d576U, 0x3ec4d2723e64ba0fU, 0x3e679bcb3e4f17d4U, 0x3e24dd1fbeac50d1U,
  0x3e2e2d57bcd46fe9U, 0xbeb68aacbe18c412U, 0x3ea24dc13e7f6d5dU, 0x3e01383f3cc74fd4U,
  0x3d2b3f19bd62d63eU, 0x3eab3d2bbe5d55d2U, 0x3e6512f43e4a8b9fU, 0xbe62e57a3e0685caU,
  0x3e2a5d383d8461b3U, 0xbea984f13e45eb18U, 0x3e7eb3dfbe32db54U, 0xbd11b4ca3ea49334U,
  0x3e33be0a3e8a1025U, 0xbdf41a4e3e37731fU, 0x3d145d603e825570U, 0x3e087cc43e672491U,
  0x3e1970f73dbce4bcU, 0x3c878431beb01777U, 0xbc980e7bbbf7b227U, 0xbc1dee1d3e07d034U,
  0xbe35d0133e6fd8b3U, 0x3ea88d493d5650f9U, 0x3ecef7383d9086b9U, 0xbcb497f8be9688eaU,
  0x3e6a487b3eb0f763U, 0x3c81f8bfbe948fffU, 0x3e053f853df6a8aaU, 0xbd815de8bda3e2deU,
  0xbe6471a2be463499U, 0x3e10f6773e02e850U, 0x3eaa86363dc49503U, 0x3be8b3f2bdfaa02bU,
  0x3d4feef03e716d15U, 0xbbcea7fdbe98c5fdU, 0x3d74d91c3e235b0fU, 0x3eab04653ea59bc3U,
  0x3e9572483e9c00beU, 0x3eae76c33dd71683U, 0x3dc02c663e262ef3U, 0xbdcc694c3d882e84U,
  0x3e270b3f3ccdb75bU, 0x3e003146be90534bU, 0xbc788f59bde9e703U, 0x3eb07425bdc6d8efU,
  0x3d307b5b3e90205bU, 0xbe110bb73c75b990U, 0x3eac6e0f3e970610U, 0xbe3a3641bdbd0e39U,
  0xbd828320bea26b27U, 0xbe50aea6be9217b2U, 0xbe6537393e03b7cfU, 0xbe431b08bd98fbafU,
  0xbca5c4f8bd07c6d1U, 0x3ea34081bd95ddcfU, 0x3db2dc88be54af5eU, 0x3e1da29dbe58a7edU,
  0xbd34a2fe3e6e889aU, 0xbe0ccf84bd310341U, 0x3e43df2bbda18cccU, 0xbe4c48febe356cebU,
  0xbe8e4d1dbdb34c0aU, 0x3e96bac53e340460U, 0xbd41f0eabec24415U, 0x3ea1d35a3e8eb70dU,
  0xbee318b8bce2c7ceU, 0x3b9de800bd84f1e8U, 0xbc8c2056be2d73dbU, 0xbe17a233be8c3a02U,
  0x3e3c84913e03dee6U, 0x3ebbf736bd73592cU, 0xbe878068be910c88U, 0x3e9842e03e8ca165U,
  0x3e2d7317be2743beU, 0x3e6e30f03eaeacefU, 0x3e9be86a3de95123U, 0xbd0f89ec3d5ee4fbU,
  0x3d9b70003e93e509U, 0x3e68b220be9e8264U, 0x3c2a6cfabe199deeU, 0x3cb2b90ebdbc502cU,
  0xbea83ffc3c8b0be9U, 0x3e12578fbb87be46U, 0x3e66d7ee3e4340a0U, 0xbe9389393e1de592U,
  0xbe6c240cbdab76f1U, 0xbdb1a882be6f367cU, 0x3c65137cbe2cdaacU, 0xbe26f4dc3e4e3cf0U,
  0xbd7e2826bdac3585U, 0xbdca40a93d4faeedU, 0xbcc5ddbdbe13fc0aU, 0xbea1d312be24bd36U,
  0x3e804b173e8e69bdU, 0xbe4964a73a280fc3U, 0x3cbf30b1bc74b762U, 0xbd87c8a5be3bc7dbU,
  0x3db8c976bd4a1d2fU, 0xbd855214bd532e69U, 0xbdcec8fabdd5676cU, 0x3db6afce3d3d69ceU,
  0x3e09dc50bd6d0919U, 0xbd19a96b3d047844U, 0xbc0d175ebbe16c42U, 0x3dbd61343d8e3aa4U,
  0x3e0c9eaebdadd4e8U, 0xbca1e0023da918b4U, 0x39533609bdaf4d2bU, 0x3ded042dbd916d07U,
  0x3e1da7813ca23007U, 0x3a8ed29d3ca47dcaU, 0x3d9263f7bc0194b7U, 0x3d494e6b3d7b154eU,
  0x3c8932a9bd81e962U, 0xbd427f503da02441U, 0x3d5acfd83d135d06U, 0x3e06c7d63cb5df4eU,
  0xbd10c557bde9749eU, 0xbd9075783e121a81U, 0xbd2bd5debc28e024U, 0x3dd01dbdbd5e0bb0U,
  0x3ca1f5d7bdc4e51dU, 0xbc8c1e793e2fc0eeU, 0xbd0157f9bd19a045U, 0x3e17016c3d12b1c8U,
  0x3e03e4a4bc8f21a5U, 0x3b48daf53e0e57fcU, 0x3d4019943c5b4123U, 0x3cbfbfea3d32cbd9U,
  0x3d66bfeebcbb2db6U, 0xbdc008203d1d8626U, 0x3d3514f0bd332be8U, 0x3d1656d8bdbaad55U,
  0x3cbc076ebdc6b984U, 0x3c1ef8f63d102cb2U, 0x3d88d6303c9d30b7U, 0x3dbd53373d3b30a9U,
  0x3cd78bf2bd34ef77U, 0xbd900ff23d6714c1U, 0xbcd754acbc970bbeU, 0xbc169c2cbd3a3cc6U,
  0x3c9b8399bbbd96e5U, 0xbdda031b3d93b2d6U, 0xbd1244c7bdaa7bc0U, 0x3e347a5bbc9d0d59U,
  0xbc8420eb3c6273cfU, 0xbd848e463e087c78U, 0x3d534fb23d4d5268U, 0xbc7c08c33d228c38U,
  0x3d6efe37bdfd5585U, 0x3db134173da83895U, 0xbd08cc823d0761cbU, 0x3dcba8863c8f6715U,
  0x3d7d2f55bc569177U, 0xbd11de9b3e00b339U, 0x3d174534bd825d9dU, 0xbc554e4dbda37cd4U,
  0x3d05318cbd8bc07aU, 0x3d96db623e013463U, 0x3c765fd2bcef8d72U, 0x3d13eb0fbdabffd3U,
  0xbcd77d0fbda13dcbU, 0xbcc2df873dd478ebU, 0x3bd4ea4bbd2f0e43U, 0x3c1d490bbd7b84cdU,
  0x3daaca3cbcdafb9eU, 0x3d6078b33e0654c2U, 0x3c3ada1abd32baf0U, 0x3dcfa34abd54d0a9U,
  0x3dcf51bbbe0e9129U, 0xbd0495133cee4a0fU, 0x3cc5330fbb4d5f37U, 0x3df8d8f5bd2ff4d5U,
  0x3e1d76aabccc0fbfU, 0x3d5f24dd3e22d23dU, 0x3d4ef908bca573f0U, 0xbcd8ee5abd5bb859U,
  0x3d90558fbaf1951eU, 0xba899e6c3d567327U, 0x3bd81980bd1266c2U, 0xbcdb9a163d625512U,
  0x3dddd309bcde0dfeU, 0xbc26d2033cf9a331U, 0xbbb65ffdbdaad25cU, 0x3db9dfccbd687733U,
  0x3dfcaaaebd9fc853U, 0xbdb5c7463e24a97eU, 0x3bae4b123d956052U, 0x3d59e1833d62b582U,
  0x3d9eb1583cd1fdb8U, 0x3c7cc6cb3e1396d3U, 0xbcc47c4f3d7a4198U, 0x3d6b859c3c192badU,
  0x3da03a5b3c0039d4U, 0xbd896e223e070029U, 0x3bbd03923d6ba6c5U, 0xbb2cefa93d488bf3U,
  0x3e08d3c0bdbb48d9U, 0xbd487c5b3c31909bU, 0x3d850b78bd04a981U, 0x3dd23e923da577f0U,
  0x3cacd9ecbca0b23eU, 0xbdb4b4553d6856c5U, 0x3dcf05da3dbbbd01U, 0x3cefd9f2bdcf5784U,
  0x3d6f9a3fbd33daf6U, 0x3d202f093d4978feU, 0x3da057013ce11382U, 0x3cb0d8643c839833U,
  0x3d0c19e0bdbc5a7aU, 0xbd9370c63d9e85beU, 0x3dbd3490bcd11a38U, 0x3d336af13bc51e84U,
  0xbb03ede5bd0444d5U, 0xbca3164e3ddabfc6U, 0x3c28ec7a3d711d13U, 0x3e0c5211bc18118fU,
  0x3d82e634be1a28baU, 0x3c75ee403d69d232U, 0x3d1a85f8bd8ed83dU, 0x3c9e6e4abbb2b0abU,
  0xbccf13debe01bdf0U, 0xbd61afe03e2592ebU, 0x3c173ab63d7a6490U, 0x3d030f963d7cfee2U,
  0x3daab453bcbdd465U, 0x3c1ad6f73e1fa2bfU, 0x3c67ac2eba3fb3c2U, 0x3db117983d940912U,
  0x3c57636f3bd704f9U, 0xbd3ebe453e251fafU, 0x3dc6993f3d92cf26U, 0xbc3cc5cabbc02452U,
  0x3d8d4b673d0df759U, 0xbdeacf1d3da3c1edU, 0x3d66ab8e3d20a329U, 0x3dbf9e233d10ce14U,
  0xbcdd621fbdd28099U, 0x3da23b063e1cf93cU, 0xbcf9f4803d8e16eaU, 0x3d18e7133d9ec8cbU,
  0xbd3836acbce6a11fU, 0xbda471b33d4325d7U, 0x3ddd48d63b4c3dfcU, 0x3e0bc19bbdcd05fbU,
  0x3dd2c177be102dedU, 0xbccf792b3e1845d2U, 0x3cc4594dbc4b516eU, 0x3d726e2dbb97b1adU,
  0x3b9b02abbcfcffa8U, 0xbd4cd7503c744fbdU, 0xbd0baa793dc386f1U, 0x3d30411bbdd46e03U,
  0xbc2c0efebe035031U, 0xbde3d52a3d3bb680U, 0xbd6ded52bd7a956cU, 0x3ccbe91fbc7d8293U,
  0x3cf3fcdfbddb1fd0U, 0xbd78336a3caf7e0cU, 0xbd163afbbcf496b0U, 0x3e2b7bc6bdaae4f1U,
  0x3d5275fcbd22488cU, 0xbd0a5bc2bb3598bcU, 0xbcbfcce2bd982ff2U, 0x3e1742833b15df6dU,
  0x3de4ebe7bdf42487U, 0xbe12ebde3d997882U, 0xbcaa93b93cdab6faU, 0x3ca9f29abd86ad7aU,
  0x3d6d5807bd8c54f9U, 0xbdd719a83d5c46f6U, 0xbcbfb8a53c8f028dU, 0x3d8a62f6bd5c800dU,
  0x3d7570a6be04b211U, 0xbaa263c23d027396U, 0xbdbdd29dbc3087e3U, 0x3e075960b9196f20U,
  0x3dc62ee23c6c5597U, 0xbd6d67353e0b76f6U, 0x3d265eb1bc8d89d7U, 0x3cb0e63e3cdbc0acU,
  0xbb70b657bb4786c2U, 0xbd74de8b3db097fcU, 0xbcd46051bd1b6566U, 0xbc45e18fbd0d5cd4U,
  0x3d80fe2cbcfb4a32U, 0xbd62f3c73dc32aedU, 0xbd3d83823cada069U, 0x3dd7dfdb3c70e04cU,
  0xbbcdd8ccbda747a7U, 0x3d31f7e03cad29d4U, 0xbcdde792bc29b7c7U, 0x3da8d427bd0fa445U,
  0x3e0b9ece3d61ed25U, 0x3d894f2e3cdee8fbU, 0x3cccf0c2bd315d0fU, 0xbd11b21dbdc2499bU,
  0x3e0363e13d29bc77U, 0xbd5754d63da81acdU, 0xbd811e12bcfaeecfU, 0x3d5c7b3fba52674fU,
  0x3dfadac9bd1df770U, 0xbe0788a2b90ac588U, 0xbcaf0e9fbd8c444bU, 0x3d5ab048bcfee310U,
  0x3d4401403d03f3faU, 0xbd953ff13dc78e29U, 0xbdda90e33d99dd98U, 0x3dbbc1d7bd7b7571U,
  0x3c5c594abb13f3f9U, 0xbe17a8523d65fd68U, 0xbd8de2b03cd8d17dU, 0xbcc58163bccb0a33U,
  0x3e03c1833d48f5fcU, 0xbcc2f06b3df54409U, 0xbd110bc53d116e21U, 0xbcae3efe3d76974eU,
  0x3d47f2fb3d80519dU, 0xbd158c1d3d86700dU, 0xbdae1ce13c9c7bfeU, 0x3d89a2f33de6c7f9U,
  0x3e055bd7bdca6992U, 0xbcc0112e3db0ad14U, 0xbd4e57943d75fbb3U, 0x3db4e753bd0812b2U,
  0x3d40710c3d76fccdU, 0xbd6962803e22583cU, 0xbd5dc6313cd51656U, 0x3dcb80fa3cca7742U,
  0xbc4e7e443d84539eU, 0x3d1b2ba83e1ce200U, 0xbd7468493d9b90bbU, 0x3d382133bd4ad074U,
  0x3de2e09d3bc1444aU, 0xbcb626333d827721U, 0xbd9913cab996b938U, 0x3ce7b9bfbd3c30b1U,
  0x3d44ec883d453897U, 0x3d1a38393dfd9736U, 0x3c7c202abd30df7aU, 0xbd4a4076bd6a3597U,
  0x3d9bebb43dc9aef3U, 0xbaf11f7b3c34e255U, 0x3cd5b55c3a975129U, 0x3d16eb8a3cc9869cU,
  0x3dbe9a9a3cab9622U, 0x3c4c28623e269059U, 0xbdc8a5bb3da5c39fU, 0xbc16fee73dcc8354U,
  0x3d5169ac3d7cc82cU, 0xbdd1c08fbcc73150U, 0xbd628fc93d90b180U, 0x3d212c60bcb8fabfU,
  0x3e13285d3d140eefU, 0xbd184f163d84a66dU, 0xbd966f813d33ddd4U, 0x3d4af7b23c40c11dU,
  0x3c2a09803cd14ab8U, 0xbdd50a103db6954aU, 0x3dc1ac693b785eedU, 0x3d9f9a5dbd65651bU,
  0x3dca1092bc67d927U, 0xbda7e2463dfe761cU, 0x3d7ab021bd045ca5U, 0x3df8d9debd4de69fU,
  0x3c5e5e163c83dcf3U, 0xbdc8d9743dde52d7U, 0x3cc03ed13a85dce0U, 0x3d873d973c6857c5U,
  0x3d3f3a8c3d3c3ec3U, 0x3dc5dc74bb78f390U, 0xbc905c75bd451cdeU, 0xbc4600133d6c62a6U,
  0x3d14a73ebb5ead96U, 0xbda454d03daaf875U, 0x3b9de91a3d044d1dU, 0xbc4c34b4bd613904U,
  0x3ca2b3a2bc4f42eaU, 0xbdb655d73df7d958U, 0x3dab94273c1006f7U, 0x3d1f5e79bd145d44U,
  0xbc5707e8bd19a35eU, 0x3d44fa583beeb915U, 0xbd71ffa73d753666U, 0x3dc458cebd178048U,
  0x3d30ae973b484542U, 0x3d1a13f13d96ff9dU, 0x3bbaa4a3bcd85496U, 0x3e272a9d3d449914U,
  0x3e0fe43dbd9ed0bfU, 0xbd2c3213391bec0cU, 0x3d34dda33c0d1586U, 0x3c50b9d53c47a6d3U,
  0x3d0565fabd425d2bU, 0xbcd2f9313d9c787bU, 0xbdcec0efbbf9c3f9U, 0xbaf8fbb53c5bad5dU,
  0x3d2c97a5bdefadccU, 0xbdb13f4d3dc166a6U, 0xbd4d0d513d80707dU, 0x3d8774453a7b98fdU,
  0x3da8767dbce7db94U, 0xbd0d7dd53bef1793U, 0x3d9bfeff3da9ecb7U, 0x3df11f3cbc05a0d1U,
  0x3cf630aa3c31a374U, 0xbd6613ce3d3b9c7aU, 0xbd499f7a3d719b54U, 0x3e0b4aa83dd03b72U,
  0x3d189ce33d6b43f7U, 0xbdfcb1f43d94176dU, 0x3cb429f6bd5558ecU, 0x3dcea220bcfd8ff2U,
  0x3d85f2ed3de216f5U, 0xbdc998c33e207058U, 0x3c84a745bd467f0aU, 0x3de3ad1cbaf6596aU,
  0x3d15735bbd8c780bU, 0x3ba08e213d23ef89U, 0xbd959d613d7f251aU, 0xbae3786d3d49fcd6U,
  0xbd1dd8b1bdcc2745U, 0x3cc05dda3d198f16U, 0x3d80358d3cb927b3U, 0x3cbc8caf3cd89c6fU,
  0x3cce5247bd6c2354U, 0x3ba03b6b3dd3bb5dU, 0xbda57c5239545dffU, 0x3cb3710c3db4daeaU,
  0x3c105ccbbdf17274U, 0xbcec482c3e231e35U, 0xbd763b62bb10e884U, 0x3dde15b33d3006e7U,
  0x3bf9c30a3d7e36d0U, 0x3d721e5f3e17357cU, 0x3d7afa6a3c9a273eU, 0x3859b5943dba24a7U,
  0x3dd8dc92bce41081U, 0xbd72c3443d3b8c29U, 0xbdbf955a3d7f87cfU, 0x3dce336f3ad725afU,
  0x3dfb5c18bd337400U, 0x3c1b56283b938f4fU, 0xbcca93c33cd7f373U, 0x3d5c80fc3d81cb40U,
  0x3e1826e0bd225f9eU, 0xbd176d753d87bdadU, 0xbd2a7863bdcde183U, 0x3bcd2d323d549553U,
  0x3dfc9105bd26df6fU, 0xbdf850733d8466ebU, 0xbac19dd6bd7b96c8U, 0x3daebb323d99ee04U,
  0x3d7683e1bd50008eU, 0xbde7ca583d69c92dU, 0x3bf8dc4ebb222436U, 0x3ca7036e3dc19f67U,
  0x3dfbb3aebde4a29dU, 0xbcb1a48c3c9b3780U, 0xbda0bc57bd2b03c7U, 0x3e0774223b962794U,
  0xbd1ec3d7bd6bdd52U, 0xbc45786cbdbb1fedU, 0xbd39eeb6bd98bc36U, 0x3df6a055bcb8ce8fU,
  0x3e104125be060043U, 0x3c6ffcb8bc2fbc91U, 0xbda7bf973bcc4ad9U, 0x3de289dd3c5c3577U,
  0x3d0fafcdbdca1bb5U, 0xbe08ae283dff35abU, 0xbca9898fbd9daeb1U, 0x3d8e39b8bdb7bb46U,
  0x3d2b39aebcd86e90U, 0xbd3d5466bd06c107U, 0xbcb88f6bbb9b2fe4U, 0x3e1208cabd714cb3U,
  0x3dd2b6c2be21f01dU, 0xbbbfed1f3bd6dc72U, 0xbdbe33cbbad426ddU, 0x3beee77fbdec7ef7U,
  0xbcce1299bdbe71a5U, 0xbe0147ad3dc2fe6bU, 0xb8f7fa7abd0ebd90U, 0x3daae27ebe2cb597U,
  0x3da68b97bc0448c1U, 0x3da235c23c8fcd66U, 0x3dab19613d15a44eU, 0x3d6779e7bdf90860U,
  0x3dd599dabb5da52eU, 0x3d1d47093d345244U, 0x3d22ba373d71bf2aU, 0xbc697e83bde3d201U,
  0x3d9f33edbd38c65eU, 0x3d2e8bf43e178672U, 0x3cffb485bc08f412U, 0x3cb72441bd2670fbU,
  0x3dcd27323d391b95U, 0x3e1c95573dfd4c0dU, 0x3e092334bca4f26dU, 0x3d43d656bd695125U,
  0xbc854286bd58ef72U, 0x3e0eeed33d30134dU, 0x3e16f7c83bbc2617U, 0xbd79bde23ce8971fU,
  0xbc9172ab3daa9201U, 0x3c8c1ed33decd224U, 0x3d5a7be23cf560eaU, 0xbcde5f243ca4684aU,
  0x3ddc260abd4a8613U, 0x3d853e553e1462dfU, 0x3c9396263d790f6aU, 0xbc8e9d80bd8c115fU,
  0x3da904a73b55236bU, 0x3da5620bbd5e47d3U, 0xbc4b167e3d85b7d9U, 0xbcb8dde0bdf08ba5U,
  0x3dd43e84bdcd9180U, 0x3d1054333e2c94d1U, 0xbc3f82fa3e06f41dU, 0xbda8e5d5bdde5015U,
  0x3daa76873e030b10U, 0x3dc4d9a43cb39893U, 0xbd3083b13d84a7eaU, 0x3d00b9eebdbf5452U,
  0xbcb92ba4bd80a643U, 0x3e0f97e43d4794ceU, 0x3cd8870f3d73c739U, 0xbcdade1abdc7ce9aU,
  0x3dc5331e3dd11b70U, 0x3c95a06f3d713479U, 0x3d8d8cdc3df3e71bU, 0x3c944533bcf532fcU,
  0x3d9731933ce60fe8U, 0x3dd019ac3d9529ebU, 0x3cbcfa13bc8eca11U, 0xbd882ee73ce84342U,
  0x3bd5a8b23d85a17aU, 0x3d1062643ddc39d6U, 0x3ddf87033c4774c5U, 0xbd04cda4bcd298dbU,
  0xbc134eb9bd1b01a7U, 0x3ccf67ec3d61e704U, 0xbc955e433ce8f293U, 0xbd13f84fbdf91b55U,
  0xbc85dcb93d3fac98U, 0x3df8b9f03d89aad8U, 0x3d9c0c153d7be439U, 0xbc2822ffbc1b667fU,
  0xbd1e914ebd09e0deU, 0x3d350abe3e3cf1e6U, 0x3e1183bc3dd50ab5U, 0xbd265820bdbda35dU,
  0xbd5069f7bb8524cbU, 0x3b08217c3e0b9e3cU, 0x3d8daab13c39b081U, 0x3dbc5efdbe1c7c02U,
  0xbd14d3ebbc9ee5ccU, 0x3c9b125f3df12ec5U, 0x3db16ce83dca50a4U, 0xbca0e339bad4e28aU,
  0xbd9314103c81f4ecU, 0xbc16284c3e1b24e7U, 0x3bf377103d56842bU, 0xbc22f5573ce43736U,
  0xba1fd32b3a56ef66U, 0x3c2260383db47b3fU, 0xba5a85f5bd33d306U, 0xbd1e343d3d3a93dfU,
  0x3d97a964bd38b702U, 0x3d9d0bc03d540cf8U, 0xbc03e7813cabef9aU, 0x3d82f65e3bba955dU,
  0x3cce6f62bd9fe9cdU, 0xbd546150bbb40c26U, 0x3dd780403b4591dcU, 0xbd3f3b0ebb379633U,
  0xbc4b4af9bdcbb937U, 0xbccbac113c166681U, 0x3d9bb2093cd81f9dU, 0xbba963eb3d41d85eU,
  0x3d9e80573c8b0babU, 0x3da2d7f73dc8ab38U, 0x3d581f5ebbef697fU, 0xbc961712bd872ea5U,
  0xbd04f2f43d3f4d8eU, 0x3d8272673dc78c9dU, 0x3d83d8393e01a341U, 0xbd11de933d8314e1U,
  0x3d2bc003bd4872b3U, 0x3d1e4d783d7bc193U, 0xbca7884e3df64be8U, 0x3d8d7dbfbda4d283U,
  0xbc7592323d4aeec8U, 0x3dd918ad3db08869U, 0x3daaec06babcad65U, 0xbc9abb19b91c3cf7U,
  0xbbd379c9bd8a8cccU, 0x3d24487d3e1ab8f7U, 0x3c5d27a03dcc7339U, 0xbd6d01cbbd25632fU,
  0xbcbc22853dbb24f1U, 0xbd3c10583d588266U, 0x3da4c6953dbc9565U, 0xbd78ce2ebbc3010bU,
  0x3d8d2aca3cb2252aU, 0x3dbd40bf3e1e69e8U, 0x3d9c4e2f3d88ece1U, 0x3b7617babc6d1127U,
  0xbaed30143cc38187U, 0x3dcaf2fe3cb8cf43U, 0xbafd69583dc4ed24U, 0x3d0f66a4bd02cd07U,
  0xbd339af2bbd6ca33U, 0x3cecdf943db6d9fcU, 0xbcfd81323cfca6b1U, 0x3dde74fc3d0130dfU,
  0xbbe00d093d225813U, 0x3cf46e543df7c7e0U, 0x3dd83b1c3dea8bd2U, 0xbb5cb3adbd4076d2U,
  0x3dbf0a683b35a213U, 0x3d52cdfe3dd1479eU, 0xbd62ed393de256dcU, 0xbd46db85be019a2fU,
  0x3c91e36ebdbb49edU, 0x3d0aab1d3e20e745U, 0xbd0149d43cdbb20fU, 0xbda5004dbdb0aedeU,
  0x3d474bad3ccf47ddU, 0x3dd136653e17880fU, 0x3daaa2c73d8fb399U, 0x3c70f3b3bdc25a8aU,
  0xbd3c07e4bdad4a5bU, 0x3d40c5c73d64c705U, 0xbce80309bb8969eaU, 0x3c8ecb453c814feeU,
  0x3cadb9663dc99e3eU, 0xbccdd7f13dcadd99U, 0x3c0a2610bd143205U, 0x3c9afa9c3c625d05U,
  0x3d7b559cbd9f501fU, 0xbc1f1f343d438286U, 0x3d1203613cb02317U, 0x3c2ddf7cbc38b766U,
  0x3bd335cdbc83c239U, 0x3ddd0e783c3bf2b8U, 0x3e06f2b8bca5d3ebU, 0xbd92dbffbdd7fd61U,
  0x3d937cbbbd0c7395U, 0x3d8776f33ca8e7a5U, 0x3df8ac63bb87f1c9U, 0x3b5dc421bdf0d99dU,
  0xbdb9dba7bc247c8fU, 0xbcda42f73dce595eU, 0xbc76edde3da2225bU, 0xbb77e9473ca8ad43U,
  0xbd9b4df8bdd3fea6U, 0x3dacb20f3e0a3984U, 0x3d8e077fba024ab5U, 0xbc796a44bdec6a26U,
  0xbc339370bcabd603U, 0x3dc4554c3de5e469U, 0x3d35302dbd643644U, 0xbd5c86f2bd1b5c14U,
  0x3cf09dea3ba31bc2U, 0x3d8cfc553da4bec0U, 0x3d4bb07c3db9aedeU, 0xbd055c523d4dbaf5U,
  0x3d6cc9f63cc09ea8U, 0x3de7545a3e1c8e45U, 0x3da29b2e3d9e17b3U, 0x3d34ce953ce81dccU,
  0x3d4a65c73d048de4U, 0x3d1674413e23d3d4U, 0x3b6f675bbc0ca69cU, 0xbcf10946bd7ecd84U,
  0xbc32335d3cb47e9dU, 0x3d19d0513d1e02c4U, 0x3cd242ff3d5ac732U, 0xbcdb6485bcda4afaU,
  0x3d84b2853d201d7fU, 0x3d895c313d913e3fU, 0x3d1d8ab93dc216c5U, 0x3da1598fbd8f2cd2U,
  0xbcd6c8ea3d25c3a1U, 0x3dcf5ec53e2b463aU, 0x3dc5dce73db2cb21U, 0x3d5fad17bdaef536U,
  0xbd250793be2a58d5U, 0xbcbdc5e83e1e217eU, 0x3cc0342c3de55f85U, 0xbd1d7d7ebdd3ff44U,
  0xbcad7807bd95c5faU, 0x3dc5ac6f3e09fa84U, 0x3e14efa73d6c2a7cU, 0x3da3fca6bc1c30d7U,
  0x3d41dabf3d2c12b4U, 0x3d7394b03d0c6d94U, 0x3d8eb1033db87670U, 0x3da71ee9be04d311U,
  0x3d5f8db03c3ff547U, 0x3d3d932f3da65493U, 0x3dd76ad03d6938ecU, 0xbc9b403cbcac489eU,
  0x3d7305083b91c7aaU, 0x3d1e5fcfba53e687U, 0x3dc6afe2bba750c0U, 0xbd48c0f1bd976a73U,
  0x3d76bb163b2f30b1U, 0x3ab7082d3e1596aaU, 0xbd16bc5fbbd08d1fU, 0xbd060d58bd29b1d9U,
  0xbd780194bd9879f8U, 0x3c9615463db9675eU, 0xbc3e01813db109b1U, 0xbd9136973c1ed17bU,
  0xbdc70f903cdc9538U, 0x3dd784413e291b17U, 0x3d8afc8fbc365df2U, 0x3d2bee90be0cfa50U,
  0x3d8c062b3c6618bfU, 0x3d9856c73c88af46U, 0x3d1628ab3d58b07eU, 0x3de0667ebb96c7b8U,
  0xbd06b7a1bd8c6544U, 0x3d2158d23dae7b64U, 0x3d3901a43dee78ccU, 0xbd2675c4bd3abd41U,
  0xbd126b38bd08e0e2U, 0x3d4f47303db57c1bU, 0x3bc9a2c53dc8100fU, 0xbca49a003d48973cU,
  0x39dd0b21be03fa4bU, 0xbc4d5db43dbdca23U, 0x3c9a3285bd0f4d6eU, 0xbcf2958dbdc892f2U,
  0x3da38078bd9f508eU, 0x3da6c0cd3dd8b6c0U, 0x3c87aa8c3d56fc72U, 0xbcc9b5bfbd265652U,
  0x3d90bed4bda04864U, 0x3b31828c3e0ceef5U, 0xbb9ce4cabd46f00cU, 0xbd4e8b16bcdc3670U,
  0x3d520f46bd8da870U, 0x3d3f07153e0ff65cU, 0x3d44337d3d450df3U, 0x3d94ee0ebdae784cU,
  0x3d882f49bc19e53bU, 0x3d8b7b9c3c5f72b3U, 0x3bb90df83d099de7U, 0x3d472b02bdfba0d2U,
  0x3cc0127cbd1ed46dU, 0x3dad843d3bd02d4fU, 0x3d90b8823dc379b6U, 0x3d70fe35bdfe4f2fU,
  0x3b0d9702bd741fc5U, 0x3de4cbf03e0a8319U, 0x3e07fc133e00b728U, 0x3aae830fbdb5e3eeU,
  0x3db79817bd99e1f3U, 0x3e0511793e0c36c9U, 0x3d4a25253d9e0791U, 0x3d368546bb87f4cbU,
  0xbca52f47bb5d5989U, 0xbd38da173d17907bU, 0x3da254083dc44e16U, 0xbd83b77dbdced806U,
  0xbae1410dbc247b6cU, 0x3d61b3633d7a828dU, 0xbc4d5ae73cf9549eU, 0x3cf73d773d46aa37U,
  0x3dddc3c93da61b1cU, 0x3db586693d915bfdU, 0x3dcc5bc23d94d0f7U, 0xbc99c3e9bdbb8ee5U,
  0x3d2d91783d838320U, 0x3df3679e3e30ce41U, 0x3e0a04cfbc0497c9U, 0xbd554a69bdec02f6U,
  0xbd4165123d7c526dU, 0xbd4510fb3d7df504U, 0x3c589a0fbcd72f8aU, 0xbd0cce5bbcc8f56bU,
  0x3c970725bd96adc8U, 0x3d5aa1f83e086a11U, 0x3e0923633dc867e1U, 0xbd29b0aabe0d3b8dU,
  0xbd2cfa413d1cd6b5U, 0x3dfd0b2f3e104f57U, 0x3c8255123de4f959U, 0x3d3f675cbd6f4f3bU,
  0xbd264e0ebda8d00fU, 0x3c8032a83d1b260fU, 0x3dca351c3e0739d7U, 0xbd60b921be0bb7fcU,
  0x3d1991393b801913U, 0x3ce5f2993c82f2c7U, 0x3c97a19b3e0af70eU, 0x3d93cda4bdb46e66U,
  0x3d87ba433c85c228U, 0x3d87d33e3dda12abU, 0x3dcf540dbc28b896U, 0x3d917c16bd9d7702U,
  0x3cb32654bd700643U, 0x3d9a70c83d981ee9U, 0x3cacf53bbc3feeb5U, 0x3c1850543d098da3U,
  0xbc7d696dbdab9d3aU, 0x3dcca6df3db27906U, 0xb8d24bb43d2d842bU, 0xbd9d2d77bd1db56dU,
  0xbc019abbbddc1e7aU, 0x3d123af93e37e5bbU, 0x3e1905bc3dea6659U, 0xbc8b509fbe0a2d49U,
  0x3be65e293dd775ecU, 0x3de8cd953e3edc13U, 0x3da08a333be620d9U, 0xbd2f86c4bc783df5U,
  0xbd0a1531bd60218aU, 0x3cda643a3dcc57a5U, 0x3d962a633dae0f49U, 0x3c00625fbdc4371aU,
  0xbd248a77bd329c93U, 0xbc2142323ddb7907U, 0x3e017cae3d3ada85U, 0x3cc1f6e03d344ab1U,
  0xbc7908a6bcb9f7e3U, 0x3cc8963b3e126759U, 0x3d6c86803c1d54d5U, 0xbc8a85a4bdf2e9e3U,
  0xbb9199343d5d7ec2U, 0xbca0f35a3db9b67bU, 0x3db69ff23d58e594U, 0x3dc5346c3bc03977U,
  0x3d250bf43d3576a6U, 0x3d8446e5baaf76adU, 0x3d31f07f3c046c39U, 0xbda6b7803ca31950U,
  0x3c5c0bf23d91b878U, 0x3da5888b3df2a883U, 0x3de274113e15fc5fU, 0xbbd1431dbd2e062eU,
  0x3d916e973c8c33d8U, 0xbb85eb663e46e690U, 0x3e245c913d97d18aU, 0x3c76cff4bd9965c0U,
  0x3cff575e3cd30277U, 0x3de62d233d4f6423U, 0x3db5b9b53de33ef5U, 0xbbf28f803dc0f16cU,
  0x3dc76fc53e02c56bU, 0xbc1f453e3e1ba54eU, 0x3e1047f43e325955U, 0x3df713ab3d014919U,
  0x3d6654b93e024e20U, 0x3dfeb69e3d4299cdU, 0x3dd447673e280f9dU, 0xbd8a2b963d684cc8U,
  0xbd192b683e12963aU, 0x3c9b0bbf3d2de721U, 0xbc8eae973d856496U, 0x3db42676bcee5dfaU,
  0xbd25f0ab3dea14bfU, 0x3d8e6d983e29ac97U, 0x3d4beafc3e0f392fU, 0xbcd76aa93d83ebf5U,
  0x3e03b869bce6e3caU, 0xbd1381893dce94a2U, 0xbdaac9f83d4bf83aU, 0x3e1e1abebd1050b5U,
  0x3d1629ddbdb1e811U, 0xbcd4e16dbbd4771dU, 0xbd57687ebcd446ffU, 0x3e10863ebca56bbfU,
  0x3d6dd2aa3c72aa37U, 0xbb63ad563c286381U, 0xbd4fa86abd4e4d63U, 0x3de996e13cffc648U,
  0x3e15b774bd5ed25fU, 0xbc9b5cd03d84d318U, 0xbd2fcf3f3d1b3a00U, 0xbcf41850bd68d906U,
  0xbd0471f5bdb4beb1U, 0xbdc8a818bc813885U, 0x3c9b1ccf3d51358dU, 0x3d8715d43d5ae2a9U,
  0x3d241b28bda46d3bU, 0xbd0848503dbf4b07U, 0x3dc40289bbcea10cU, 0x3e0371d63d9351d9U,
  0x3dbba371bdb9d4fdU, 0xbd623d4dbcba0451U, 0xbd9e2176bc6255b6U, 0x3df3e6d63d91f3c7U,
  0x3df01d29bccaee86U, 0xbc7300a5bc3af749U, 0xbc5b5d65bdacf962U, 0x3d2f61df3d37affaU,
  0xbc9bc910be076089U, 0xbd53d40b3d52e10fU, 0x3dd4b0a7ba671c42U, 0x3dcd7269bcd46738U,
  0x3ca88368bde64ce2U, 0xbde6eebd3e15a42cU, 0xbcb4d373bcd76082U, 0x3da3cd28bd4d1774U,
  0x3d93d248bbad14baU, 0xbcc9358e3df021d7U, 0x3da5c48cbdc54ffcU, 0x3cc5eff43dcc31e6U,
  0x3cb1647bbe04bb87U, 0xbdcc26ab3d314134U, 0xbd9cc00b3c4c3ab8U, 0x3c993ec1bd1b37d4U,
  0x3db58888bdd8913eU, 0x3d5892723c7fb8d2U, 0xbd496155bd1f36efU, 0x3c0165f8bd2618dbU,
  0x3dc017efbd384ba4U, 0xbd5aa8c1bc52c8aeU, 0xbd5b80073d815ff5U, 0xbccddb8abd98c88aU,
  0x3be283d8bd19f23fU, 0xbd4e20593e222a4fU, 0xba0b5d43bd06f8b9U, 0x3ce5f204bdae90f7U,
  0x3d342e3ebc5f4ddcU, 0xbd941d073de30aacU, 0x3c6097743c986e7bU, 0x3ce87c063c9fbf44U,
  0x3dc461c7bc7e1503U, 0x3da8ba8abb81e748U, 0xbd9efe943d396c39U, 0x3cb0cddc3cdbf612U,
  0x3d3a61e9bd28f473U, 0xbc7d6b843e17289bU, 0xbd2fd88bbd757acaU, 0x3def98f4bc902224U,
  0x3da676723cb13a53U, 0xbca32e373d06c388U, 0x3d40d5e63d9e1835U, 0x3cd380f0bd845791U,
  0x3d437d66bd464c62U, 0xbcd2dbc43d4141cbU, 0x3d03f8053d87bc41U, 0x3d9344653d00b904U,
  0x3d979da53cab6fa4U, 0xbd814d3ebc18d629U, 0xba909c98bd91ca53U, 0x3cec0fd33acc14ebU,
  0x3c8ce4ef3d8efa84U, 0xbd96bed23debb808U, 0xbb1fc7833d5a7f73U, 0x3dff04373d359d31U,
  0x3d27496b3d93e62cU, 0xbd6260d13e17679eU, 0xbd83fad03bc0d22bU, 0x3d3d42143df476c7U,
  0x3db10787bdde76adU, 0xbdb4e4bc3d9bed11U, 0xbdb67385bd2045b9U, 0x3d9506613cd9b975U,
  0x3c907db5bd7cd045U, 0xbd9eaf853e034055U, 0xbd005843bd896996U, 0x3d78de4e3d7c059bU,
  0xbcab0cb6bd058692U, 0xbbe1fd59bd02b3beU, 0x3d0e5cb83c15baefU, 0x3ce148bb3d18c8b4U,
  0x3df6a84ebc1af977U, 0xbd9fe71c3dc9ad2aU, 0x3c978f3e3d6ef163U, 0x3aca37f6bcb3368bU,
  0x3dad2c163d346b5aU, 0xbda2227bbd17d7e7U, 0x3c80557c3d9baee9U, 0x3d04433fbcb3f51dU,
  0x3d7d9d81bcdd3bfdU, 0x3c4454233e080922U, 0xbd9d260e3d39663aU, 0x3d0fd505bda8678bU,
  0x3d6b9a29bdbbac2fU, 0xbd8465143d8697d8U, 0xbd2d8569bd5f330fU, 0x3e02d625bc24972aU,
  0x3d336946bdbd8f8aU, 0x3bb5a67bbc6369d3U, 0x3a94727bbb84909bU, 0x3dd6643e3d6e9992U,
  0x3c3ffaf4bd7d47d0U, 0xbd074821bc27327eU, 0xbc5345bc3d889315U, 0x3d307ab3bd5bc36eU,
  0x3dd5fa39bdad98e3U, 0x3d18779f3da45c22U, 0x3d3ad1afbcaa5598U, 0x3b8f930d3cdb0192U,
  0x3db444b23d33983cU, 0xbcca9b083daecc19U, 0xbbdec678bceaac40U, 0x3dacfd85bcb78861U,
  0xbd3b702cbd9f0b7eU, 0xbd9204123e13888fU, 0x3d725b703b672350U, 0x3dfb11dbbd6c0c54U,
  0x3d82cf38bdce09a1U, 0xbd061625bd069093U, 0x3d52e7c83d4af8baU, 0x3d8c44613d4ef8b9U,
  0xbaf43786bd717dcbU, 0xbd51001abd665d6dU, 0xbcab9982bd088076U, 0x3de9614abd955d87U,
  0x3dbfc00bbdd9b861U, 0xbdbcdde9bd09a679U, 0xbb22fa2e3d2b1a85U, 0x3d313107bdb84133U,
  0x3d4ff8b9bd65e5d2U, 0xbd565eef3d962f2fU, 0x3d703f8a3d75491cU, 0x3e362f6cbd85a505U,
  0x3dd05c343ca429d9U, 0xbde3a4623d23bb1dU, 0xbd8071f7bd25ff95U, 0x3d5c86bcbdd8ffaeU,
  0x3b92bc193c6bb602U, 0xbe1508f93d744c78U, 0x3ced4478bd246066U, 0x3e1bf975bda1f91cU,
  0x3dddccc1bdb385d2U, 0xbde3bca03df2145cU, 0xbd9841dabda16ec1U, 0xbc35cf053d2c20bfU,
  0x3d4f85d93d4734a0U, 0xbdeb7a36bd5c867cU, 0xbd880ad7bd5e4175U, 0x3d3474393c13fe31U,
  0x3da6e7d9bda5bc9fU, 0x3bec4cd33d172a34U, 0xbdb665b9bd55e209U, 0x3df2b2063db719feU,
  0x3e1d497cbca94c00U, 0x3d8c8b2cbd999957U, 0x3c846033bcd3d68dU, 0x3db57fd3bda3959aU,
  0x3d429aa1bdfb8a28U, 0x3c421b803d45c27aU, 0x3cc11110bcbf9b16U, 0x3dac9392bc8b2803U,
  0x3d999ff53d43922bU, 0x3d377620bd24a150U, 0x3d216b3fbc9bc37eU, 0x3cb1ed23bd89abcfU,
  0x3d68a546bc4ee81dU, 0xbdd85f863b410f1eU, 0xbda109ee3bdee00cU, 0x3e181e3d3d8dd621U,
  0x3dbb8faabc350701U, 0xbdd530df3d3de897U, 0xbdc2b1f9bd26ba80U, 0xbd067da43cdd4b52U,
  0x3d897c05bd2e6151U, 0x3c0e56dc3d6a56d5U, 0x3d97fbf93d42eb4cU, 0x3e14968a3d00cb78U,
  0x3dd86c69bbd7b258U, 0x3c4161f1bd826ae2U, 0xbc9f5e0fbd91ed34U, 0x3c4fe7b2bc54a529U,
  0xbce77090bda44533U, 0xbc6d4607bcc57c32U, 0xbbcbe328bcf8f34eU, 0xbc379151bc8b1380U,
  0x3e0d7c98bd930912U, 0xbdfdd3dd3df34f81U, 0xbdf83ca2bdab4a7aU, 0x3bca8776bd78dcb6U,
  0x3e00cf49ba9348b4U, 0xbd2f3e15bd156e2cU, 0x3d971255bd52d5d9U, 0x3cba53673c2c6e07U,
  0x3e0404aabd3ff96bU, 0xbc97507f3d42dc8eU, 0xbce042853ca19bf0U, 0x3d8f61df3d5a2116U,
  0xbc55bd9a3d67cbadU, 0xbd81020b3dd3ed17U, 0xbbaf8b22bd762580U, 0x3d9e43f2bd0d655aU,
  0x3d3e1ffa3c5ca15fU, 0xbd2109603d2d041aU, 0xbd8b3e7bbc6c77f4U, 0x3afe09b53d5a561aU,
  0x3cacf6873ce459b5U, 0xbd3bd0c73bbd3633U, 0xbca17bf43c459e50U, 0x3da552783d2e55f4U,
  0x3e0dd18abd0d413eU, 0xbd09e0223bef2e4eU, 0x3d37b51d3cc467ffU, 0xbd24c3ea3da02c99U,
  0x3ce1ceecbd0af99eU, 0x3d1dd3d83cb094c3U, 0xbd3bd5e63d264f5fU, 0xba6f85443d3a63deU,
  0x3d06df27bd1590e1U, 0x3c2657f03d2100cdU, 0x3bf5fe5bbd178da2U, 0x3db5526a3df1a348U,
  0x3e07020abcea3622U, 0x3c975a203d29efd6U, 0xbdb186713d3bc7d6U, 0x3d0829f73d974a34U,
  0x3e0e3e383c9ac561U, 0xbd8528c43da3ccfeU, 0xbd0a9350bdddda18U, 0x3e1792103d4f6f96U,
  0x3dc37ba33caa7cc8U, 0xbdb265e23db69dd6U, 0xbcd372943d2418b6U, 0x3d84e1f3bc6af1ebU,
  0x3e12bca23bd60d6aU, 0xbdee9e8bbac49f00U, 0xbd4d41babc636676U, 0x3cf98f63bdb306d3U,
  0x3d762f43bd6575ddU, 0x3cd830653e1b70c5U, 0x3d46ee2c3d193840U, 0x3defadd43ccfa86bU,
  0x3d85317ebdd44f79U, 0x3d14c2fb3d38c8c4U, 0xbd9aff913d2af115U, 0xbc3e6c813daff7adU,
  0x3e010f80bd6a31a5U, 0xbcf8f2543b230c41U, 0x3c093d48bc5f0233U, 0x3db766e13d22617fU,
  0x3d8c3db9bc69f284U, 0xbc6cedb8bd1333c2U, 0x3c4227f0bcc7b916U, 0xbbd4bf08bc48f6a3U,
  0x3de8b49bbcf74d44U, 0xbd7b84933c9a07b0U, 0x3d625cc4bba367ccU, 0x3dea2352bd8324a9U,
  0x3b7ac5413c4052f7U, 0xbd9a2902bd3518e9U, 0xbd070db6bc88d67eU, 0xbc7b5a763db8094fU,
  0x3d974b5abd71d533U, 0xbe0067163c9deb08U, 0xbdb596fdbcaa3de9U, 0x3ce9475c3daf1459U,
  0x3e0ffceabdd6be6dU, 0xbc168ccc3c5bc454U, 0xbd2693e0bce0e484U, 0xbce098ce3d8c9291U,
  0x3daa1af1bda01212U, 0x3ce56ca23c8204cfU, 0x3d16e6a63bc55778U, 0x3d06fdb33d585047U,
  0x3d1f4b12bdb805dbU, 0xbd2afcba3d40f487U, 0x3d6c0a67bd48bd4aU, 0xbd31c79ebc0ce898U,
  0x3dc8a342bc278fc8U, 0xbcd0b8083dd7440bU, 0xbcedae1d3b8781e5U, 0x3e092f313d6b9e5fU,
  0x3e1f83843d827a9bU, 0x3c8fc9123d86abe8U, 0x3c39b842bd87c593U, 0x3e2e322a3d9ecdbeU,
  0x3dd55c94bcde4956U, 0xbda0308f3d14c592U, 0x3d5ba4e7bd1303ebU, 0x3e05cb093b8471f1U,
  0x3dbf6a1f3c09f71fU, 0x3d17f833bd41e660U, 0xbde185c6bd9dcaa3U, 0x3d485c8d3b2401d0U,
  0x3c3231a83d9c7d2cU, 0xbc2301bfbd54af7eU, 0x3d0a1b6b3da30b64U, 0x3d68da503d43fd72U,
  0x3d3855d03bf0dbd3U, 0xbd71b814bd0aef97U, 0xbd8a3fbb3d287d22U, 0x3d5e28553d2e90e4U,
  0x3ddc456b3d5daaa8U, 0xbd3a289e3c9bbdb8U, 0x3c65e60bbd0f8fd2U, 0xbd4c8b7b3d95576dU,
  0xbaf77e64bdaa4c18U, 0xbd56f66cbaef0da4U, 0xbc118f8b3d84c135U, 0x3c34a582bda15199U,
  0x3d3135a43db9cbe0U, 0xbddf98213c656d6aU, 0x3d3914c53d33c2ecU, 0x3d92a31c3d8e7eadU,
  0x3d1120613bf41640U, 0xbde598e63b5826e6U, 0xbe049ce63c967511U, 0x3dd78b643db2311bU,
  0x3e007958bd8e6b04U, 0xbbe90ed63d54ca63U, 0xbd64b1d83b557e68U, 0x3e18c1d0bd152b7eU,
  0xbaa8d63c3c47f08eU, 0xbc853198bc554ba2U, 0xbdd2692cbd994914U, 0x3c63e4093d0dc145U,
  0x3d0475e1bda2eaacU, 0xbe043567bb9a8080U, 0xbde00849bdf554ecU, 0x3db75993bd811f91U,
  0x3c35f419bdbffd2bU, 0xbe1520c73e047fe5U, 0xbc500268bd1d0778U, 0x3e05783dbd3fe804U,
  0x3df1013dbdc23afbU, 0xbe08f8883daac9e6U, 0xbd24c866bb04ea4bU, 0x3e0a7c9dbb3a482aU,
  0x3da08fd7bb6595bbU, 0x3cd4309ebdee55a7U, 0xbd3c6f11bd665fdfU, 0x3e257883ba060e55U,
  0x3df2bf87bda8b5e2U, 0xbe0db01e3daefce5U, 0xbc412a39bd33eea9U, 0x39f5a64cbde78ea7U,
  0x3d2af973bdd5eb43U, 0xbdba53543da291e7U, 0xbd20b2babceebadcU, 0x3e0a053ebdd5c730U,
  0x3dc22c76bd8a8571U, 0xbe0db16abd662245U, 0xbd671840bd016e24U, 0x3d201699bdd1a844U,
  0xbc3d7a90bde3c37dU, 0xbb97c6fdbd8aa942U, 0x3ceb70703cad2ee1U, 0x3d9c0084bd90f75fU,
  0x3d1aa52ebe0a211aU, 0xbe3f3f16bd726eb8U, 0x3cd7cd86be0368bcU, 0x3d7e1498bddb8416U,
  0x3da5a905bded9fa1U, 0xbdc3df8b3d366bbaU, 0x3cc8bb0abc5d97f5U, 0x3de0e2833dbf9d24U,
  0x3ca9b3f8bd6109caU, 0xbd8ff76fbd861359U, 0xbd841446bd2ee5feU, 0x3e4071ccbd525ef5U,
  0x3e13519f3d766158U, 0xbdd1ccf6bd2439c0U, 0xbdd0785f3d72170eU, 0x3d0b215c3dc4dc44U,
  0x3de092283b53be21U, 0xbde204bcbceb1251U, 0xbd3ba87a3d0c17afU, 0x3cff54963c8edb75U,
  0xbd004c3abd5cfb6bU, 0xbce76d37bcea5250U, 0x3cd8deacbd84b036U, 0x3d37048ebd69ac0aU,
  0x3d11b0f9bd41cf23U, 0xbd888e0e3dd8e8aaU, 0x3db160d7bc9f580fU, 0x3e0f570b3db103ddU,
  0x3d69778b3bc49014U, 0xbdbc873e3d24c9e7U, 0xbd82120e3c9cdc03U, 0x3d9ec5e5bc4c304aU,
  0x3e2862bdbd81dd40U, 0xbdcb84b83cac4626U, 0xbba430663ce6467cU, 0x3cea3c073d57a76aU,
  0x3ceac451be32aba8U, 0xbca5dd2a3da2007eU, 0x3c7cd223bc36649aU, 0x3e099e3d3d680d1fU,
  0x3bc49ebebdcf6fcaU, 0x3c01db373dae07eaU, 0x3e09e6eabc5e468fU, 0x3d182d423d3a7050U,
  0x3d527c5bbd6f0175U, 0xbd93f2103dbddec1U, 0x3da86f243ca64620U, 0x3e061d00bc457515U,
  0x3d635b72be0ded10U, 0xbd4f7eabbd8558bbU, 0x3d8c19aabd1dd4d4U, 0x3e0f3e03bd716f15U,
  0x3d5d2bc2bda48792U, 0xbd971afabcd019a7U, 0x3dc35ed1bd1f2a19U, 0x3cf832453daff08fU,
  0x3d1d879e3cfee795U, 0xbd6a7cf8bc9b48b2U, 0xb9b82fa33d2f22d4U, 0x3de019b73b606f66U,
  0x3dcf8927bd4d981fU, 0xbdb9f6083cb2582cU, 0x3d3fe9a93d7c8816U, 0x3c2e74e73c5cf9bdU,
  0x3be1e186bd7a2ab0U, 0xbda11a203c9e59f7U, 0xbca59f5e3d018d84U, 0xbcfca9463c98d8ccU,
  0x3ccdc92abe2422d7U, 0x3c0c9fb5bd137afbU, 0x3d1a2f8abd6098a6U, 0x3d52e2b53d8f5705U,
  0x3b8566cabe045184U, 0x3caf17753e042f95U, 0x3cd9252bbda2d1d8U, 0xbb897a8e3d21814aU,
  0x3d8cdcaabd98b46eU, 0x3d737bce3e23c172U, 0x3a2082a1bd95161dU, 0xbd78cb17bd139a70U,
  0x3dcb63c73ce56c2eU, 0xbc1e2d233dd28638U, 0xbdd58726bd277c52U, 0xbcaf58e93ca65b3cU,
  0x3dac9687be07f152U, 0xbd96a3a93b6a67b9U, 0x3d34a9c9bddf04ceU, 0x3dff071dbd138fd9U,
  0x3caa3414bd8ca6d2U, 0xbde3c86d3d9a77f0U, 0x3d3c75473c8f9452U, 0x3e07e02f3ca15810U,
  0xba579e133ccafaf3U, 0xbe1d77a93e1d30d2U, 0xbcbf08a13db8826eU, 0xbc6d93afbc9bea41U,
  0x3d59cad3bd80612eU, 0x3bbf786f3e0eaec4U, 0x3c8e3688bbd0193bU, 0x3d5f99c3bd8bb235U,
  0x3d875e983b885485U, 0xbc8b472a3d2c18b8U, 0x3d83df6a3c2ed476U, 0x3d10eec43db93853U,
  0xbcd721a0bd68c154U, 0x3c0c22493dc8c123U, 0x3da5b76abc80ef50U, 0x3bf34321bc890770U,
  0x3e09911f3bce288dU, 0x3d3b2bdebcc44e01U, 0x3d138db5bdef53b6U, 0x3ccdb127bd26b66fU,
  0x3d37de5e3c41ed5aU, 0xbd06142ebc7e727dU, 0xbd806853bd8bdd10U, 0xbb69b4f63d1adcceU,
  0x3ce5afc13c061cb7U, 0x3d38df673e106a00U, 0x3d6ab0d53d4f9f0dU, 0x3d98de77bcc2201dU,
  0x3d7b3179bda74158U, 0xbdfed1813d01d5cfU, 0x3c90c39d3d3dc34dU, 0x3e3447e2bb8b0660U,
  0x3dac4be73c43a04fU, 0xbd8724403c26f237U, 0xbc5b55ff3d29513bU, 0xbd35ace13d73ddf8U,
  0x3d5c64c7bd990773U, 0xbd9ebe3c3c3c895bU, 0x3de359dabd62ca3fU, 0x3e2050bebd0c421dU,
  0xbb18df3cbd86ee6cU, 0x3cfb9af63d548b8dU, 0x3cb1da10bda1835bU, 0xbc89d80fbd5e6fc5U,
  0xbd0e2e8f3d914e03U, 0xbd177e263de379fcU, 0xbbc472cfbda301c8U, 0x3de83e23bd0318f2U,
  0x3d313a62bc043eadU, 0xbd42e7293df24802U, 0x3d0744dabd939115U, 0x3dfde30a3d9acf2eU,
  0x3b87f5093da4282fU, 0xbd7066523d501b9aU, 0x3da01cf8bc978abeU, 0x3d3eb113bdb117daU,
  0x3caafa2dbdaf0a7cU, 0xbcddc9563d86539bU, 0x3db987503d58e681U, 0x3e28eab0bd4c1bceU,
  0x3df0af343cd0b89aU, 0x3c6609d43ddac74aU, 0x3d74b22a3d6f09f6U, 0x3e12e0debe16c764U,
  0x3cafb4d3bd066ebfU, 0xbdb74bfd3cc495b1U, 0x3da377a6bce3f6e0U, 0x3e4e87b2bd845c47U,
  0x3dab28d8bdbbe418U, 0xbd85cb783d921c9eU, 0xbd69cb7ebd8f0edeU, 0x3d9708debe04db9cU,
  0x3db08002bdab16acU, 0xbd8251263dad03f0U, 0x3dc07cf9bd76b0fbU, 0x3d9092983d22d4cbU,
  0x3dbc65e5bda18f69U, 0xbcd12a853c7c9bddU, 0xbd8f38e6bc82c83fU, 0xbcddd5a33d38553aU,
  0x3d13d1fdbd91720cU, 0xbe0d05e1bcc94264U, 0x3d821825bc2474c6U, 0x3e22ceaa3d3cb9a9U,
  0xbc2bc0403c98ad29U, 0xbd77f8503d049ffcU, 0xbde1e14dbda9614cU, 0x3d8a8ed13dd0f16dU,
  0x3d89b9ffbcf890ffU, 0xbd36a1efbc349e4dU, 0xbce3bc273d3d4987U, 0xbcc76e3dbd926a74U,
  0xbb8dc75ebce47c0fU, 0xbc1ae038bd81cc7aU, 0xbd704377bbc9b7bdU, 0x3cc25e01bd8a7772U,
  0x3dc4839abc37c3acU, 0x3ca296f5bd2019cbU, 0xbcfce6babb9b3331U, 0x3ce75a95bd33e0f0U,
  0x3d273f62bd849a31U, 0x3bc5e48d3c0d5685U, 0xbaf880c2bd14d718U, 0x3e119d753d1929afU,
  0x3d91f3563c236201U, 0xbdab50d93d593b44U, 0x3929a208bdcd58a5U, 0x3d87d1eebe055254U,
  0x3e253b3bbcccfc4eU, 0xbd3f38b33cbc2287U, 0x3d369768bd80bd27U, 0x3e10a010bd56626eU,
  0x3d880ab8bd642e6bU, 0xbd8d1f41bd90a849U, 0x3d11fcd9bdac1b38U, 0xbc8040843dc946ffU,
  0x3dbe40b33cea7eb3U, 0xbe231662bc10a6f3U, 0xbd16939cbc685683U, 0x3da33373bd070f5cU,
  0x3d50e4a2ba0fee3aU, 0xbdeb45283ce5c894U, 0xbd038362bcb2479bU, 0x3c97a9113cdc5e75U,
  0x3dcdb7963d7272e5U, 0xbdd173763cbb7048U, 0xbc710a5ebce1f485U, 0x3da92d91bd3e70ebU,
  0x3d8ebc193c88096eU, 0xbe0e338c3d5c07bcU, 0xbdedf8113c366c0fU, 0x3c20ae673d81669eU,
  0x3de5fc07bd0f8d46U, 0xbe3b47a73d9619a3U, 0xbd3ff89a3d9677e6U, 0x3d3940203d8ad32aU,
  0x3cb01ac83e08b68cU, 0xbd13201a3d1ab5a0U, 0xbcd994c0bb590cb7U, 0xbc663747bd34a33bU,
  0x3db590c73dff333dU, 0xbcbcead53dc9483cU, 0x3cb45cbb3cca758cU, 0x3d0a613c3d38f497U,
  0x3daf44d73c41aedaU, 0x3d056c33bc8d8787U, 0x3d0bc87bbca025cfU, 0x3cc65bf23e1e331dU,
  0x3d73c3ca3d52014bU, 0xbcfdebf63d8e486bU, 0x3d04b10abc5e1e69U, 0x3da7368fbb9455ccU,
  0x3c27255d3d84ee9eU, 0xbc6d711f3c10dd65U, 0xbd76b8b73d50888fU, 0x3cbb7d793d0766f9U,
  0x3cb8a1723aa63135U, 0xbd07a3563dbe4654U, 0xbdcfd33cbd8e69ffU, 0x3dd1b82f3c9f1d5eU,
  0x3d15db90bd4367ecU, 0x3d18547bbc891e59U, 0x3c02774dbce4fbb0U, 0x3dc7c7cf3cdcac62U,
  0x3dee36d83c9456c7U, 0xbdc942ff3dba021cU, 0x3cd91a6a3d0873caU, 0x3e1a4b903d532e71U,
  0x3df295163d92201bU, 0x3c5487cd3daf3b70U, 0x3d7fbe00bd779834U, 0x3c410e393cddb8e0U,
  0x3d3b2d683cc8d384U, 0xbd985a17bc15c99aU, 0xbce0b5d9bc4ef5d0U, 0x3cb3274dbb14840fU,
  0x3d0af62cbc77d45bU, 0x3b3747073d8ebaf8U, 0xbd629fd63d778185U, 0x3dae1ca5bb11b788U,
  0x3def3279bcd92eb6U, 0x3d52790abd2f2db4U, 0x3c31e3fdbcf97c73U, 0x3b8f89d63de1dd5cU,
  0x3e3293d5bd5b52a7U, 0xbd634f44bca279adU, 0xbd626609bca55ba0U, 0x3dc942463d7f365fU,
  0x3e24b9af3de5c5d3U, 0xbd04fbb83c17942fU, 0x3db7f7bbbc453ac6U, 0x3dbf07fc3c9a068eU,
  0x3e0ba758bdcb4ef1U, 0xbd1381a0bcccefdeU, 0xbd8677f93db4cb39U, 0x3c8fa1e7bd857669U,
  0x3e4d30debce6ce8dU, 0xbda043293d1dfba4U, 0xbbfdf88c3d3d3d41U, 0x3d287c613d4a815dU,
  0x3d990b8b3b18a028U, 0xbd01b0a83d6eef35U, 0xbd81cb243d22105eU, 0x3da5c0633c7ad1f9U,
  0x3e23d0b13d36de24U, 0x3c6addfdbd6be2b6U, 0xbd4f9372bda22f28U, 0x3dbd6e6f3d70c510U,
  0x3df0cccdbe177eb9U, 0x3afd64bfbd8a2629U, 0x3d6d2417bc498ecdU, 0xbd95300c3dc9bec3U,
  0x3d9921263cc05ac6U, 0xbdb4b283bc1586eaU, 0xbd17e63abd14cf60U, 0x3d8116e33debd9fdU,
  0x3e23c51f3dcded50U, 0xbd92d413bcc32fe5U, 0xbdc7dc74bd011614U, 0x3daae3e43d9fd1aeU,
  0x3cda2c5e3d8f32b2U, 0xbda2c754bdc1c197U, 0xbd9afcf6bc84fb79U, 0x3e16e6443c4a4609U,
  0x3e09edbd3d749e97U, 0x3be9bbf63d1cbc4dU, 0xbdf634d8bca84f21U, 0x3d0277bf3d275bb8U,
  0x3dbdf2153d7b9481U, 0x3cafa57c3c246fb5U, 0xbd86da353d167844U, 0x3d0f6affbc9dc53cU,
  0x3df063d03d819300U, 0x3cc410c23d821bd9U, 0x3c11bdcc3d04ad4aU, 0x3afc535cbcf0bd47U,
  0x3e06b5d63e260b48U, 0xbdfd31413d1f7d08U, 0xbdce9723bc443b50U, 0x3dacb2e33da81c67U,
  0xb8ae492f3d86d179U, 0xbdbed8443c921e35U, 0xbdf1ce6bbbc5b34bU, 0x3d94af1c3dae472cU,
  0x3cbdf0c53d20d674U, 0xbd1f7c073db5b861U, 0xbdf725b6bdd75018U, 0x3d820763bc96a108U,
  0x3c29227c3d1c3d78U, 0xbdb470113d106fb6U, 0xbd4d8a3ebc200f6cU, 0x3d17d14b3db5eedaU,
  0x3d91803bbd898c7bU, 0xbcde2bb4bc9d1568U, 0xbd015543bbea5825U, 0x3e1d9f1fbd6c7e7bU,
  0x3e0f9885bb2fc08eU, 0xbd3ab4debdbb8a41U, 0x3cc1793dbdae1cc5U, 0x3de1ef81bd8c9c6aU,
  0x3d0a3f72bd61f1a1U, 0xbe01e6953d14f3f6U, 0xbddf784ebdaf556cU, 0x3d0be3b8bbadae00U,
  0x3de186313cce0800U, 0xbe1c941d3cf80902U, 0xbda4a015bdf9135dU, 0x3d39af4abc14f319U,
  0xbc49cc66bcf2ff7bU, 0xbd96002e3d3cd49eU, 0xbe230cb7bdc06c43U, 0x3db7030f3d0c4030U,
  0x3d7d64e6bd293aa6U, 0xbdbe7c4bbdffdbf0U, 0xbe0ce7b9bcec2a2dU, 0x3c74cb66394f7a36U,
  0x3e1e41f5bd375b53U, 0xbe008e4d3d75d5a9U, 0xbd872a6bbd23169bU, 0x3caaab9abe15f5a5U,
  0xbd12ad53bdec5132U, 0xbdbcfb3abd0d0187U, 0xbd64a962bd88ea71U, 0x3e0a3bd0bcf62b90U,
  0x3df65bb2be072231U, 0xbe272cfeb9c67580U, 0xbde6de26be047128U, 0x3daf276f3d45d369U,
  0xbcbb0860bdfd4867U, 0xbe1ba619bdf6d5ceU, 0x3d0311abbdde090dU, 0x3e21e706bc4d4987U,
  0x3d9c6736bd8263cdU, 0xbe0df0ecbc151fceU, 0xbd815bacbe00b8cfU, 0x3d7bc77ebdc442d1U,
  0xbd2243aa3cec7668U, 0xbd65b1673d7d738eU, 0x3de5e2f33dd2a651U, 0x3c3f6c32bda20d9dU,
  0xbd5d304dbc513950U, 0x3ccf7dd93dd9f480U, 0x3dcfe61f3d2127f9U, 0xbd6c994dbd617a58U,
  0x3dc52102bc838a1cU, 0x3de0f95f3c8f65b5U, 0x3de9b2dc3a75d044U, 0xbd5a3487bbc287e2U,
  0xbc485642bd5b7f5bU, 0xbb51e92b3e223154U, 0x3d40a76a3cf5319cU, 0xbd876251bc9953f3U,
  0x3cd957c53d1500c1U, 0xbcab17633e126863U, 0x3c8db89a3db1e2a5U, 0xbd7bac663d238fb1U,
  0xbcf9b0f4bd7c163cU, 0x3d89a0653da0dac3U, 0x3de73e03bd17ec2fU, 0x3d8b99debd6ef826U,
  0x3c4293bf3d003fbaU, 0xbc9264c73e1ab8daU, 0x3d874635bcffba36U, 0x3d983f48bd388853U,
  0xbd757ea13d911450U, 0xbd82eb383d21399aU, 0x3de0afbf3d3c19f5U, 0xbd87a57b3c79a41dU,
  0x3d9f7a8dbcadab06U, 0x3b0f27e33c9428a8U, 0x3d1b26c9bd2a3505U, 0x3d5a63e4bdd439c0U,
  0x3dc830143c8366bcU, 0x3cca99863daa8cb9U, 0xbc14539a3dd08b21U, 0x3cefbe99bdffdd11U,
  0x3ce8e3bcbd0ba923U, 0x3dfec79c3c4d5470U, 0x3dbcc8cd3df0c223U, 0xbd659712bcaea010U,
  0xbbfe05b0bbf0fc15U, 0x3d8515d03d1852d4U, 0x3da94de33d87c155U, 0x3d0a7359bc99ed9fU,
  0x3d3e4ff83d2e97f2U, 0x3afb0d483e19c588U, 0x3d3f791bbcb7c05dU, 0xbd9aaa133c69286aU,
  0xbd6d5195bd086069U, 0x3d6ca86d3d98ba15U, 0xbc3dbbb93dbd69cdU, 0xbd334c46bd39eae0U,
  0xbd676119bd08dc03U, 0xbc6610e63da75945U, 0x3cf219bc3d950bd9U, 0xbc376862bd3fb042U,
  0xbd02c922bdaaf64fU, 0x3da836f43db90e95U, 0xbd3041b23ca3a577U, 0x3d1930893d0bbc3eU,
  0x3d06f2793d51fb7aU, 0x3c4003ee3d2b1af4U, 0x3de914ce3dfe1e02U, 0xbd38f5f3bde58dd1U,
  0x3d7214b0bd221192U, 0x3b9526953e2efe38U, 0x3cb63eb93ddcb214U, 0x3b9601613c7a05f6U,
  0xbd9256fabd8a80a0U, 0x3dd88245bc6246f7U, 0xbb937a96bb6731cdU, 0x3d6ac6843c9bdf35U,
  0x3d60fc243c8cc205U, 0x3ddd0bebbb8a3c7cU, 0x3df8775e3db01130U, 0xbd7758afbda50fa8U,
  0x3ca1642e3d51a85cU, 0x3d9898973ce62db1U, 0xbd1dda143cf44081U, 0x3d8778e63d46c0b5U,
  0x3dbb23f5bdab216aU, 0x3ce7d3b9bd186041U, 0xbcec82ca3d7dd7beU, 0x3d7765dcbd2efd71U,
  0x3c8f7a3d3d82440eU, 0xbc89f3373d3ce345U, 0x3de00e5c3dae815eU, 0xbd35fc3dbda7aca5U,
  0xbd5e17ff3c5ee433U, 0xbd66629b3dfdd680U, 0x3db4e166bbbabf09U, 0xbd9f60f6bdb5b00fU,
  0x3d9294733ccbee5fU, 0xbc185ca33e07781eU, 0x3d0329d2bb8d3450U, 0xbd9fcdffbdd84069U,
  0x3d9279bebc5a48bfU, 0x3d26646ebc998757U, 0x3d8126b33d98b58bU, 0x3d91b4e53d820ab5U,
  0xbd15714bbbec3f82U, 0xbd36bb853b8256b2U, 0x3c9b65c4bd41da85U, 0x3c0af972bd7e4fe9U,
  0xbd77c873bcfc9c9bU, 0x3c4ffb7b3e04f120U, 0x3d173cda3ca3ae56U, 0xbd2d457abd5dc29dU,
  0xbd007e32bd6b282cU, 0x3dd5795a3ccdc985U, 0x3cb3e6243dc5552bU, 0xbd1a38703ca32d12U,
  0x3d99fdb5bd92c0caU, 0x3dce253c3e09b3c0U, 0x3aa2d48f3cd3f0dfU, 0x3d0e976ebc45ceceU,
  0x3d504ed4bd649823U, 0x3d84b53b3d43156aU, 0x3ca864973dc7875bU, 0x3c64af223c8ceaedU,
  0xbd2ff2bf3d61b21dU, 0x3b852bac3dfa0e9bU, 0x3df92d543dc161a3U, 0x3d48effdbcc29f69U,
  0x3d807a03bc008978U, 0x3c1c59b43e0978a5U, 0x3dc36fd73c2792f5U, 0x3c28af06bda82137U,
  0x3d85e1b5bd2f1298U, 0x3dabc46b3d788fdaU, 0xbd0a28943dbd0eb8U, 0xbb51a06b3c0b8bc2U,
  0xbc553f9f3cc6058fU, 0xbd27fc683dae0390U, 0x3c84bef0bcb5d9d8U, 0x3d456098bdc6d505U,
  0x3ccf5294be1dfde2U, 0xbbafd75c3dee8b6aU, 0x3d2e513b3da4d4c8U, 0xbd7e0844bdaea9c1U,
  0xbc87c0123c1b0521U, 0x3d9d7fd53e2ac1a0U, 0xbb234a4f3d9f243bU, 0x3d2f7a3a3beabcf0U,
  0x3d07b195bdf8f8dbU, 0x3d05a9aa3c9ef5f6U, 0x3ba591553dda2409U, 0xbacc6c043af29f48U,
  0x3dcae955bdcd4c14U, 0x3d0f01e13e18f766U, 0xbca275573d94d4b2U, 0x3d9345dabdd82bc9U,
  0x3dbd2b04bdada57eU, 0x3c25598a3dfaaf56U, 0x3d94a6603d82bbd0U, 0xbd69672d3d0e684dU,
  0x3d82e4dfbd7b8770U, 0x3da156ef3db6e9a7U, 0x3dca6e933dd86cf0U, 0xbd79f4c93c3421b5U,
  0x3c903dfebd0a7403U, 0x3dbbf9c03d7f8b0eU, 0x3dc3b73cbc8a4a43U, 0x3c5330cebd6907e6U,
  0xbcf13c71bc66616bU, 0xbd7da1ee3c66aee0U, 0xbd00e2483dc394ffU, 0x3d53f1cfbdff6b93U,
  0xbb33e252bcf50f2bU, 0xbd85c3273defd52bU, 0x3d8222c83d8fda4bU, 0xbd231030bd91f7d4U,
  0x3d6186db3d1214b0U, 0xbd89ee053d07ec3cU, 0x3d944e713db761e7U, 0x3c2e34473bd291a7U,
  0xbc845ca4bc06a475U, 0x3d8d6d4a3cdf5fc6U, 0x3c9ab4a1bcffa878U, 0x3d9c2db3b89d9a87U,
  0xbd5318123d226906U, 0x3de4a9433e01caceU, 0x3d0d92643d93cb94U, 0xbd82c6143d1f7736U,
  0xbdc042fd3c87ed99U, 0x3dac921c3dc157d3U, 0x3d2082fa3a21eb4aU, 0x3d3cd4953d789ea4U,
  0xbcc4d483bd9c46a2U, 0xbc2aa51a3ddacc85U, 0x3de5f2923dc9b0baU, 0x3db05cf23c4d21c3U,
  0xbd751ea33b5d4083U, 0xbcf00af43dd5d635U, 0xbd0be90d3d9dd148U, 0x3d89979fbe078e89U,
  0xbbe3c4453bbd4ec7U, 0x3dc8f4803d7ed2bfU, 0xbd1c7b853dcdf4a5U, 0x3cb1aef5bd75db3dU,
  0x3d9fd91abdc4eea0U, 0x3d9d81083d3223f6U, 0x3dc4e08fbc9b9555U, 0x3cf4e2e3bd9eae15U,
  0x3dea99943c6cf57cU, 0x3cb5b96d3def3d76U, 0xbd1876f43d73c5b0U, 0xbd8182263c2d307aU,
  0x3c8c698bbd50e14eU, 0x3d8c4eca3dddf4abU, 0xbd18befb3dd47c77U, 0x3d78f24bbdaab94bU,
  0xbd05e0663cdc781eU, 0xbd7d6bb03c0a4537U, 0x3d24cdcb3c716c82U, 0x3c8357f9bc3d86c7U,
  0x3d61213d3d510e13U, 0x3ab9dc683cf6a87cU, 0x3c7892693d8810a7U, 0xbcfc09d1bd0a0968U,
  0x3d431ea6bdc7c1b4U, 0x3cf4026b3de4fa62U, 0xbd3049c33cc38d27U, 0x3d85c663bde67e83U,
  0x3cf74fb5bd4a0498U, 0xbd24a6453dd197c8U, 0x3d76784f3d081c2aU, 0x3b93e2c5bdbac023U,
  0xbd2ffc82bcab7407U, 0xbd473f7d3df0e593U, 0x3cfaefd33b81706bU, 0xba2f7349bd64fd00U,
  0x3d8b594d3d43f5b3U, 0x3d4cde0d3cee8bdaU, 0x3ce23d453daacee0U, 0xbc90ae27bda75cb4U,
  0xbc873cb5bd8d666eU, 0xbcd2483f3e10e74aU, 0x3db2d182bc2d4f29U, 0x3d4aa9c2bde27a1bU,
  0x3d15bd763c14388aU, 0xbd0eda1e3e0465adU, 0x3b7bc60d3d390dd0U, 0xbd91c292bd2398b8U,
  0xbc9db5b0bd7ad17aU, 0xbd0163de3d7a16e4U, 0xbcd33ae1bba3f98bU, 0x3d9fa1c73ce2f593U,
  0x3ce964f7bcb306a4U, 0x3d8cb6653de1e735U, 0x3d21ed31bb22e3faU, 0xbd778c9f3d00b361U,
  0x3d94a224bb1566e1U, 0x3dcec4ca3dc7c030U, 0xbc9bd378bd3b5c5dU, 0x3ca438543d01ec0bU,
  0xbd9d85c3bd167636U, 0x3dd20a293e1ee1beU, 0x38bc357d3cac6507U, 0x3d809b11bdbc3027U,
  0x3dc5066fbe1c3579U, 0xbd7b867c3dbd728fU, 0x3d5ae813bc93d34cU, 0x3bb3e300bc7d82adU,
  0x3daf15c3bd3e6a15U, 0x3c2ecde83dd0693cU, 0xbd1fa63b3dda69f4U, 0x3cc334cdbd74e679U,
  0xbd4e55d8bdc6fe70U, 0xbceca2ed3cedbe0cU, 0x3d2c185ebc504ac2U, 0xbd569809bd59ae84U,
  0x3db6e7693d0a5949U, 0x3d1a0e873d75436bU, 0x3d627c133d39b55eU, 0xbc48a99a3d336591U,
  0x3d4716383cef445cU, 0x3d5ddd553d931f41U, 0x3d74be37baeb25b5U, 0x3cb78f523bb3cbb3U,
  0x3c88d9cebda66f7dU, 0xbd11cd633d89ab8bU, 0x3cda6c493d9c9d0cU, 0xbd635292bdba9840U,
  0x3dcc52d13c314a5dU, 0x3c46f6d63d10a2abU, 0x3dd7a5cb3c0b7b42U, 0xbc50ccb4bcf8caf8U,
  0xbce0d85fbc827c11U, 0x3d741efc3da1e892U, 0xbd04cf843ce03110U, 0xbcc4cbef3d1a2a9cU,
  0x3c40ea2d3d136eecU, 0xbbc4991a3e0dda52U, 0x3d1521713d399b22U, 0x3c861c703d348b29U,
  0xbd0e6a243d224ff7U, 0xbd4337583e2d8158U, 0x3c5d0a09bcf2b91fU, 0xbdc6b9123cbcd9d8U,
  0x3d66eb80bd4b73e8U, 0x3d47e23a3d471815U, 0x3d9bbb823d7ce5fcU, 0x3bd4ffba3b497c3aU,
  0x3cd7f4fdbdbbcbf8U, 0x3d72e597bbacdb8aU, 0x3de287173d70e1a8U, 0xbd8141c2bc6ab0f9U,
  0x3b3aee5a3cb7e3edU, 0x3dc9eab9bc50b2a6U, 0x3c96c2973dea2c8eU, 0x3d0ceadabd921862U,
  0x3d79ad0dbd970ae5U, 0xbcaacc373d336884U, 0xbd415cb9bcd6e895U, 0x3d71b10dbd001bc6U,
  0xbbdc5be1bdf0724aU, 0xbd534e203dd22962U, 0x3d93223f3d3c456aU, 0x3d946dd3bdbbb1a7U,
  0x3c2dbe643c52e00aU, 0x3df320d13e32307dU, 0xbc90c21c3cd52d35U, 0x3cdc114bbdafdfd6U,
  0x3ccb085dbc614bebU, 0x3d98a92c3ccda69bU, 0x3dc63967bcf3ff29U, 0xbd3d2dbfbbc22a69U,
  0x3d8ebf013cb2e1b6U, 0xbd38af6d3c6dcf53U, 0x3e08564c3d13bf3dU, 0x3d77a5e0bdbee39fU,
  0x3d5f8bbebd92aa7bU, 0xbd5665603c8d3dc9U, 0x3cbb4550bd6f854eU, 0xbac6b914bdde486aU,
  0x3da1cc54bd08df71U, 0x3d2e43883dca47efU, 0x3e0f3bcdbc1329b0U, 0x3d5a535fbcc38f42U,
  0x3d37bac5bc27c368U, 0x3c1113af3e110944U, 0xbca28388bd7b6827U, 0x3d2c9d96bdf82ad4U,
  0xbcb254debd29d025U, 0xbb7d5a563e085db5U, 0x3d46472bbb95ccc7U, 0xbd79400abd2de23eU,
  0x3d1a5d91bda49d23U, 0x3d270ac73dbb191aU, 0x3d3e00713d9f2eb9U, 0xbcae790cbdc8668dU,
  0x3db98a433d687a0aU, 0xbd80d2e33c80e54bU, 0x3cb8278a3da786d7U, 0xbd9a5900bde57c83U,
  0xbd16a9c73ce246b6U, 0xbd0d99103e0cdc4cU, 0x3b13eeb53dbfa070U, 0x3d8ef4a8bc94bf7aU,
  0x3dcddb0d3d72502dU, 0xbd8004683d867e37U, 0x3e0ff812bc4ebcbfU, 0xbc74107fbca56d82U,
  0x3c70cfeb3db4de25U, 0xbcb1cab43e1d4342U, 0x3d67f82ebc6bceddU, 0xbad1a10dbd659e1aU,
  0xbcf2f6e03ccadd68U, 0x3dd249d23e06309cU, 0x3c36fe343e04986fU, 0x3cdd6201bd9e582bU,
  0xbbfc85f93d1fd31cU, 0xbd0247f23e2ccb2fU, 0x3df30aa93da8fe3eU, 0x3cd03ab5be37c2dfU,
  0x3d6d15013d874c78U, 0x3e1d347f3da4c636U, 0xbafbce7f3d4c694dU, 0x3d400df7bd9aa0c1U,
  0x3c51324e3ba844a4U, 0xbd2636083ce14245U, 0x3de342743dae362bU, 0x3d4f69ecbcdb664dU,
  0x3ccfdd2abc51f8cfU, 0x3de6e7cd3e1a66abU, 0x3abaeb333def6deeU, 0x3b3e2980bda388d2U,
  0x3d954e7a3db05a96U, 0xbd2a85c33e29852aU, 0x3d4b1d053d683c5fU, 0x3d3c1e11bc93b6fcU,
  0x3d2ee4a7bd3c392aU, 0xbcdf07523db89ea7U, 0x3d23e29e3c33ce2cU, 0x3d088116bdef3c16U,
  0x3d8102d1bc7f86deU, 0x3db903923ccd6c80U, 0x3c192a5fbc59e264U, 0xbdb5580cbd30f1a8U,
  0x3da2c15a3d14e5f3U, 0x3cd6e7ba3dc0ec71U, 0x39b50f073daa538dU, 0xbd688103bc9b8654U,
  0xbcac5dffbd6ac610U, 0x3d9060ae3e2b247eU, 0xbbf5c9e43dc2c0a7U, 0xbd492349bd021b62U,
  0x3d74a37e3dad199bU, 0x3d51e9783d52bfeeU, 0x3d873c593d40bc6aU, 0xbb82ae28bbf2ff79U,
  0x3d02772b3d0f85c5U, 0x3c98e1233de54e13U, 0x3d4e90fdbd30c601U, 0x3bb3ee7fbd896975U,
  0x3cc8ad2d3d9aad8bU, 0x3cd4b2f03d0f1128U, 0x3d9a8a783d865c39U, 0x3ba2b95dbbf7f139U,
  0xbb1c61c43d521cb1U, 0x3cb7ce7e3e2285b5U, 0x3dfa216fbc880203U, 0x3d409bc6bdee74a3U,
  0xbd0386abbd6e3282U, 0xbc624ac43d13fef7U, 0x3e0ed2a43d2428faU, 0xbd91689dbc6ca000U,
  0x3cf405de3d21cb80U, 0x3de01af33dcfab50U, 0x3dc376343bf051d5U, 0xbd962808bc79107cU,
  0xbd2fe6553d9a2195U, 0x3dbd663d3e1a29f3U, 0x3cf55c943de7151bU, 0x3cfacb01be08830aU,
  0xbd9629553c917133U, 0x3d63d8643e0e64feU, 0x3d115d6c3dc2e2a7U, 0x3d3439fbbddd4006U,
  0xbd587c4c3dc89624U, 0xbd319e213ceca677U, 0x3b1615263dee41c8U, 0xbd3bf7eabd2cda3fU,
  0x3d064632bdb10ba8U, 0xbd53c7ac3dd9e10cU, 0x3ca3575a3b09ba5cU, 0x3d9cf90abdce4ccdU,
  0x3d1d0c813c6703daU, 0xbb6d7c4a3ccff197U, 0xbc41de203db913daU, 0xbd5a2598bd9a0cbdU,
  0x3d6e868e3d45c23bU, 0xbc4480593dab2b41U, 0x3d1559e63c9790a1U, 0x3cea0d5d3cd1a1c8U,
  0x3bca13933d27c929U, 0x3c172e073e220e69U, 0x3d6d8e5a3d958748U, 0x3cded41bbccbd05bU,
  0xbd69ce973d46c957U, 0xbc056f093d614dc5U, 0x3d9d8afabd02c4faU, 0x3ca1da71bc7b61c5U,
  0x3da90ce6bd6113eaU, 0x3dc32c79bcfa88a7U, 0x3dbc790abd48a592U, 0xbd91a3b7bd6a0b57U,
  0x3d9749cf3c3633f1U, 0xbcb14362bd185c93U, 0xbcfc217c3d8be34fU, 0xbd6efa3dbdcab9ccU,
  0x3d40bae8bd3b36baU, 0xbd7304b83a41571cU, 0x3b6ce13a3c728676U, 0x3d2cc7f03c6cc702U,
  0x3da80184bd1d4e5dU, 0xbcf929ba3dbb33bcU, 0x3dac6a0a3e00f151U, 0x3d20ca4abd2e4597U,
  0xbcb9453ebd725e3dU, 0x3d4114683cec7a1dU, 0xbceab4cd3cf5e7f6U, 0x3d8b806bbdd41018U,
  0x3db8462c3d803841U, 0xbaac1dca3be09ed4U, 0x3dce7c99bc4f0b45U, 0xbda2c120bdeff524U,
  0x3bfafaaf3d5a5c30U, 0x3cd9fea83d532cc0U, 0x3d3ff3ffbcacadd9U, 0xbdbc22733c1fbeafU,
  0x3d846084bd8970d6U, 0xbd5ec51d3d0fa1c2U, 0xbc5d322c3d5ff9cdU, 0xbd949289bb78a77fU,
  0xbcdf7afabcb864dfU, 0xbd90509e3d8ad6b8U, 0xbb83d39a3b3b70e9U, 0xbd7cf707bacf1292U,
  0xbd1b912abca7aaceU, 0x3d3965693d0396cfU, 0x3d84bfd43d99fb03U, 0xbd9becb0bced179bU,
  0xbc58be31bc86f82bU, 0x3dc39c3d3d3f98a7U, 0x3d5c2310bcdaa913U, 0xbd8bcb55bcadae3fU,
  0xbd932134bd7321d6U, 0xbb8a10853e1cc825U, 0x3dd13c37bad083edU, 0xbc067627be072274U,
  0xbd16fb433d719ff0U, 0x3c4a219a3db737e3U, 0x3dc8285d3b2ef998U, 0xbc4c2a70bd46488aU,
  0x3d8290bbbb963322U, 0x3db23ff53df59710U, 0x3ced8e77bb793906U, 0x3d2c6e87bd9659baU,
  0x3c657b2cbce6e7caU, 0x3d334b223e225745U, 0xbd24380439009083U, 0x3d6aeb62bd7e2cbeU,
  0x3cb7be18bce8979cU, 0x3d9547c53e23c57fU, 0x3c81ed893c4776d6U, 0x3d64f03cbe0d816eU,
  0xbd9278adbdf697f2U, 0x3d3578a93c820b59U, 0x3d3f10e4bd23312cU, 0xbd8707113cd5a15eU,
  0x3da72bb23ab49e53U, 0xbc7e43da3d874490U, 0x3cab21883d8a2fbbU, 0x3d723dafbe17bc50U,
  0xbd62d59bbd49fe3eU, 0xbd16f9543e14ecc3U, 0x3d661eb73d2a0d82U, 0x3d4673ddbdc33729U,
  0x3c809c5ebd9f6509U, 0xbd55faef3e076191U, 0x3d54194dbccdc7afU, 0xbb35448abdeb0a0cU,
  0xbdacc6eabd8e5c7dU, 0xbce08b1d3db29fa1U, 0xbd2a7f453dc7d1a1U, 0x3d995a96bdf25c89U,
  0x3d4429d63b8c7219U, 0x3d1e56573d045665U, 0x3d69c15e3c9d30ffU, 0x3d6fa44fbc0ae3f2U,
  0x3daad24cbc63d397U, 0x3da962b63da18fd3U, 0xbd26f037bcecc41fU, 0x3d92614e3c8ff683U,
  0x3d197cc1bd31111bU, 0x3c116f853d8e525fU, 0x3dcbb4f53da3140bU, 0xbcb47b413d058459U,
  0xbd6166ecbca57416U, 0x3cfe4d4a3d247c23U, 0x3dd741233cde4995U, 0xbd59b9fdbdb03d67U,
  0x3cf00d0e3d2edfe9U, 0x3cf83aad3d16d50eU, 0x3d4621683dacb9bcU, 0xbcf63a53bc615587U,
  0xbd3197ecbdaee068U, 0x3d637eed3d65d39fU, 0x3d96022e3db20a71U, 0xbd07db58bd8df737U,
  0xbd22014b3d072defU, 0x3d2fcc623d78b6b4U, 0x3da664ddbd1b0dcdU, 0xbda11a33bda06816U,
  0x3cbeca5fbd2f674dU, 0x3d6373d83cc549a8U, 0x3dd6f9863d0ff881U, 0xbc9ec6d3bddd5458U,
  0x3dc94238bd994655U, 0x3cb801463d25e04aU, 0xbc5bbf1bbbe2ff34U, 0xbca7c996bdbd6fe7U,
  0x3da1574fbc1b2959U, 0xbcc0b5823e0af97cU, 0x3c8246493cec7550U, 0xbd8b3db9bdae6854U,
  0x3c171f21bc89b052U, 0x383afa293e1b5256U, 0x3da2a4fbbb7024dbU, 0x3acfa226bde3b54aU,
  0x3d66864bbdeaa72eU, 0x3d95da273cfa0396U, 0x3d5dd7f23d45ed01U, 0x3d93008bbd4f5c1cU,
  0xbd9275ec3d2a2412U, 0x3da0349f3dd6b2d5U, 0xbc0053d93c99d63eU, 0xbbb485dc3d0145adU,
  0x3d6150313d4673e8U, 0x3c2840033e1fb013U, 0xbb47e6e5bd17034bU, 0x3d022b2dbe0c8827U,
  0x3d6e24d5bdd4a213U, 0xbc6d009d3d9dc14aU, 0x3ac60e053d1f7d73U, 0xbc9cc6313ba7425bU,
  0xbbb678c5bdb38d55U, 0x3db46ef33ccf2c08U, 0xbd1c6f153d897d37U, 0x3d9a7f7ebd613595U,
  0x3d4ab03fb97caa2fU, 0x3d38fcd33d32342eU, 0x3ce174a63d8205cfU, 0x3cd5a0d0bd221750U,
  0x3da7b8b3bdd2baeaU, 0x3d2c96f03c0c8deaU, 0xbd09ad7abd0f5819U, 0x3d266305bc772c39U,
  0xbd71ba0b3d700abfU, 0x3c86355d3cab4e81U, 0x3b67521a3d0cd9f6U, 0xbd2f938ebc956c05U,
  0xbd1436d7bd12e324U, 0xbd481dc93db4e97eU, 0x3db36441bce850ffU, 0x3c948f573982994cU,
  0x3c99ef473ca00ae5U, 0xbcc5d99a3dded268U, 0x3d055b923da78f5fU, 0x3cb817a9bc5fea41U,
  0xbce587003b798d9fU, 0xbd15cc25bc145f10U, 0xbd87b1ff3dde8e15U, 0xbc81f1bebd07f59fU,
  0xbd6aadd03c675339U, 0x3d9be56e3b6e78b9U, 0x3d85fca637d5b2acU, 0xbd034ee0bdbb978cU,
  0xbd0764bd3c31499fU, 0xbb6cd1683aadcf57U, 0xbc25ac9dbc152a60U, 0x3cb56882bdb3d3fbU,
  0x3d46aceabd70f3f9U, 0xbb3840c8bc100b83U, 0x3d73ce55bc80a833U, 0xbcbe5deabdc0f670U,
  0xbd71d234bd26cfe1U, 0x3d1a92a93b477faeU, 0x3d69529d3d1a4010U, 0x3a39fceebd60a02dU,
  0x3dc20177bdc173b4U, 0xbd1bb1313cde6ebcU, 0xbb4c30a33cf27bcfU, 0xbd8671a13d39d0f3U,
  0xbc62a0adb9a150aeU, 0x3db020b83bc06a07U, 0xbd64a6583cd4550bU, 0x3c93894ebd08b97aU,
  0x3d9f15a1bd81b810U, 0x3d63aff63dd3f4c6U, 0x3db2d3d73bcc6d2bU, 0xba9f3d94bd4ccfdfU,
  0x3d671c1cbd9fa7feU, 0x3ddca7813dc46f19U, 0x3de6cf363d604f56U, 0xbc24b88dbd7af785U,
  0xbd1957063d872e0cU, 0x3db92695bccaa9c7U, 0x3db54ff2bd0017cfU, 0xbc7d0326bc8db4aaU,
  0x3d95eeb9bd00e832U, 0x3c9016d03d23ae01U, 0xbb8b31da3c79557bU, 0x3d80f9fdbd60e778U,
  0x3db56d9fbcc30416U, 0xbcc121a13e033888U, 0x3d045ebf3c4c977fU, 0x3d63e32cbdc7d232U,
  0xbca4aac3bd291963U, 0xbd4e27f43be6bd93U, 0x3dc88c353ce2a122U, 0xbbffaa653bf48b68U,
  0x3dd06bb6bc518ce8U, 0xbd5ec1213d957406U, 0x3ce1b2a33d4bcf07U, 0xbcda74d5bde3f665U,
  0xbd51d3a13d9ab0f3U, 0x3ce69f273e028897U, 0x3df352b43d18e5e0U, 0x3d4fb5993ba5531eU,
  0x3c2d23f0bdb78961U, 0x3b0f34343deff4d1U, 0x3dfcffc43db66174U, 0xbdb9038a3bb522c0U,
  0x3d78017cbdcbaaceU, 0x3dc6489a3dde0addU, 0x3d98ca033e0b4cf1U, 0x3cfa8283bcd34e8eU,
  0x3d273802bdb3e8f9U, 0xbcc9eee23d8a5200U, 0x3da808573dabbb5eU, 0xbd0f4e12bb5249ddU,
  0x3c536cf1bcc15f46U, 0x3c5a99a43d723b82U, 0x3d9e743f3db4b83aU, 0x3c1b7a92be0d394eU,
  0x3da55b02bd08eaddU, 0x3d29d95c3e235120U, 0x3da1cc703d110b49U, 0xbd6de975bb6f5fa4U,
  0xbd4c5a893d3f6018U, 0x3d5584033d9c6515U, 0xbd0c04533dfc94d0U, 0x3d70a115bdbd7addU,
  0x3dab82edbd874f1eU, 0x3c49cfbb3dae979dU, 0xbd152dd53c5dca7fU, 0x3ccfb595bd466e9aU,
  0x3bbb5cb83d6d5ef7U, 0x3dcbc4263c3fb47bU, 0x3d6dee873daf6a48U, 0xbd8066933c8250f7U,
  0xbcba65e1bdaaff1eU, 0x3dc223c83dbb9087U, 0x3d95e7023dd052d8U, 0xbcbff2f6bde1147eU,
  0x3cad6c623d5b4a10U, 0x3da3db1e3e223eaeU, 0x3c0aa6763da4bbccU, 0x3c6d7c83bd276edbU,
  0x3d7a5fb33bd872faU, 0x3da0cef83d93d361U, 0xbc2ae55e3d075859U, 0xbd9d3e023d3b7fd2U,
  0x3dd9d4613dc043abU, 0xbd74ad0a3dc19a2aU, 0xbc97356e3d14c66dU, 0xbd835573bdd845b5U,
  0xbd8724923bf97fc8U, 0x3dc4613e3e2a6502U, 0x3da2caa83dfc741fU, 0x3d6b4f673cc19612U,
  0x3dca0b5d3c9429efU, 0x3c248baf3df0d732U, 0x3c37d6d63d90ee5aU, 0xbbc8bb7fbc8a7f70U,
  0xbcb263e63e002034U, 0x3c192aad3df50f1aU, 0x3defcbc63e131b33U, 0xbc304bfa3e05dedaU,
  0x3ccd03fa3def2d41U, 0x3de0ee813df5ffb6U, 0xbc9cfd1f3e0b832cU, 0x3da1de313c81aa76U,
  0x3d8c50d23d6b9388U, 0x3d360f9b3dce9463U, 0x3caf70df3d5e4367U, 0xbd8a8f3ebd41b84bU,
  0x3dae25113d64940fU, 0x3d4c39a03d4728f4U, 0x3dd647313d5f0294U, 0xbdb11f9bbc20ed50U,
  0x3d866ff2bcf40ae5U, 0xbcf389463e1033aeU, 0xbc2270e03dbaa5c9U, 0x3d1db9c4bcebc15eU,
  0x3d2b8af7bd1c907aU, 0xbcf6965a3d063a22U, 0xbd51f0a63d94c590U, 0x3c8cb6dbbd87e2aeU,
  0x3cb01362bc1a36f1U, 0xbd3c90933d5343c0U, 0x3de8c34d3db4e652U, 0xbce93ca0bdffbd3eU,
  0x3d20158ebdb38cf3U, 0xbc511c843d8440caU, 0x3dff42013cb22e55U, 0x3c254c5abd356354U,
  0x3df58153be0187b6U, 0xbd243d883e1f9eccU, 0x3e09c8bdbbf1414bU, 0x3c8bac36bd981201U,
  0x3d8683e7bd901d0dU, 0x3db7c6163dab78a4U, 0x3da93f3e3d205a29U, 0xbd51ebe4bdba3e62U,
  0x3ddf83323cab12d2U, 0xbd083bb03d2ba653U, 0x3d3c1c4b3d1d7de5U, 0x3d250517bdbf78e8U,
  0xbd1a39383cdad2f8U, 0x3d4a7db03e1d4a74U, 0x3dc13a803df4cddfU, 0xbd24aa133b9b5b25U,
  0x3ce33a03bde3fcd8U, 0xbd97edeb3c9c9a67U, 0x3d0e6ee6bd15a9e4U, 0xbc515480bdbde7f4U,
  0x3d22edb83da8c810U, 0xbd3a2c1c3d80f468U, 0x3c7b292ebd31af1cU, 0x3db58f23bda3aa83U,
  0x3dc03203bdab5640U, 0xbd2b42c43cf09c16U, 0x3dbdf0993cbcb641U, 0xbd249161bdb52f37U,
  0x3d477355bd390147U, 0x3d82f80e3e0cf3a0U, 0x3dff0e473d87dc00U, 0x3d109312bd9ea39aU,
  0x3d2fb83dbd50c868U, 0x3d31988d3e20fb2dU, 0x3d67e9c53d3d3c19U, 0x3c3e8cdc3b24160cU,
  0x3d541c7a3cd64a04U, 0xbd99225e3db20bb5U, 0x3dbfec373dbc82b4U, 0x3d9f5ca6bdd9b52fU,
  0xbd07ceefbdc7c4f1U, 0xbc34b4ab3e239f74U, 0xbd55eb713cd07319U, 0x3d18c002ba393cf7U,
  0x3d9e9bbebccd5ed9U, 0xbcf88f223e3a6513U, 0x3d2b1b9abc830b68U, 0x3dd8be543d0423cfU,
  0xbc8c8e593cab0f03U, 0x3db155f53e188d33U, 0x3dd807d23db4a0caU, 0xbd0866e03c7abcd1U,
  0xbd5ad4fbbd8d6794U, 0xbd353ee23df78072U, 0x3d1547703d9fd43bU, 0x3d31257e3ca06a2fU,
  0x3cea35983d3fe2adU, 0x3d913ac03d42908aU, 0x3c42f7ad3d62bdb7U, 0xbd892108bd30fe9aU,
  0xbca6dc073cafb1e1U, 0x3d2603bd3e01bce6U, 0x3dff9754bbd5a7eeU, 0xbc807c0abdb59cbbU,
  0xbd93f089bdb8930cU, 0x3d9e4b4c3e0d1a41U, 0x3d43247bbd0c9452U, 0xbd54de3abd0c6619U,
  0xbd84e0383d1e1241U, 0xbd3139bebc85baf8U, 0xbd030e423db0f29aU, 0xbd315fb23d2c382cU,
  0x3dba9e083cdb58d6U, 0x3c6d82283d423695U, 0x3d4c49cabd3554c9U, 0xbd6f14383b269fbaU,
  0x3d01c84fbd5e2170U, 0xbd7aaea73e057240U, 0xbc1eb6513db30511U, 0x3bc7f6483cb8baceU,
  0x3d04d419bd99e170U, 0x3dcd7ae33dc0d843U, 0x3da8bfe63dcbfd8dU, 0xbc33b7ef3d628e0aU,
  0x3de751bdbc8cc146U, 0x3d88de4b3cb3ba21U, 0x3da8db003d297283U, 0x3dc4091dbde5797bU,
  0x3de004fbbdf24a6cU, 0xbd474b8a3d01d798U, 0xbc47db453d85dbf5U, 0xbd379ca4bd0ac694U,
  0x3d8d06febd01e726U, 0x3cdc4f7c3d941297U, 0xbca6ef903d08e377U, 0x3d3dedb9bdd6ed71U,
  0x3dada5d6bd3affc0U, 0x3d22e14b3db6d26eU, 0x3d7a4d393c871c39U, 0x3c99bf91bd51c221U,
  0x3da1e160bd1db3baU, 0x3d2998843cf87f1dU, 0x3cba3005bbdda63cU, 0xbd7b660ebdd0bbe1U,
  0x3b87bd1ebdc1a10bU, 0x3c2fe2903d32bbcbU, 0x3b9ecbe6bd39e715U, 0xbd3d5b02bd6563e6U,
  0x3d238c84bd7cc0c2U, 0xbd025f613d232de5U, 0x3dbc104d3da739b5U, 0x3da9d279bba5d8ccU,
  0xbca4de05be01d70aU, 0xbd887d893ddbc78eU, 0x3b84993dbd940811U, 0xbd3e6941bd2ee632U,
  0x3daad0583d110e17U, 0x3d6c1cae3d136d49U, 0x3b168c203dab815aU, 0xbc32c968bd8058d2U,
  0xbd7f7a9f3c39ef41U, 0x3cdd15a33cafc858U, 0xbd1e44b5bc845c44U, 0xbd53c5113d1f07deU,
  0xbd7188a6bdb6e75dU, 0xbd58aa453e11eb38U, 0x3c58dde0bc56fa93U, 0xbd565695bc826d28U,
  0x3be18c66bc8c5f26U, 0x3bca109c3e31e961U, 0x3e02c9cfbcf4fcd3U, 0xbcd172d43c3056bbU,
  0xbd9021a6bdd6f47aU, 0xbd02d3bbbc73e0d9U, 0x3df9f5983d426d55U, 0x3daed5bdbd8c3869U,
  0x3d9548873d2a1634U, 0xbd579c103db4a21eU, 0xbd18b4293c87946dU, 0xbb7b5c24bc7c55fdU,
  0x3d1eb7ba3b6767a8U, 0xbd5ff5bd3d47a40cU, 0x3d8c8b73bc9399a1U, 0x3d43f17ebd52837cU,
  0xbd4b2710bda765e7U, 0xbb062d2f3ded9b5cU, 0x3d8186c9bc444520U, 0xbd3477603b704bbbU,
  0x3bef0d713cfa1d10U, 0x3c00fc733c04ac7dU, 0xbc69dc573c8e2e4dU, 0x3d6778a7bdc50c21U,
  0x3d0bad31bd925fddU, 0xbd64d3053dbdf535U, 0xbd1add0a3c1f31bbU, 0xbc241f67bdaef90cU,
  0x3d48e9bcbdbbf79bU, 0xbd514a373e3303ceU, 0x3dcad59e3d131fe1U, 0x3d4f138cbd3e8b8eU,
  0x3e0959a7bd3ccfe9U, 0xbd0c8ddc3dd6d0f4U, 0x3cd96a873db16f67U, 0x3c700b49bc4ac2dcU,
  0x3b7b8fe5bcc4ef1dU, 0xbca449c03e2546ecU, 0x3ba30ddb3b87e3cfU, 0x3d2844d73d12a0f7U,
  0xb99fcac43c0fc954U, 0x3c0a88e73d4effc7U, 0x3dbbd0f43d7eb6edU, 0xbd4e0bdabd26b36aU,
  0xbcda8c90bbad777bU, 0x3d15ff123e16fc45U, 0x3da5bb62bd10db1eU, 0xbcdc91fe3cc991e1U,
  0x3d5a1708bc9af465U, 0x3abb181d3e0baccfU, 0x3ce3ff663caefba1U, 0x3dda43193d1de573U,
  0xbcc49a5c3bcdb263U, 0xbc1e12af3e2f0420U, 0x3c89ea693bb46eb0U, 0xbd52c8273ca7410cU,
  0xbc8d84853b0967d7U, 0x3d4ada1e3df11620U, 0x3c22fb1a3dc5dcc1U, 0xbdb510edbdb50d08U,
  0x3da4e2c9bdf647c2U, 0xbd93ae663cb32cb6U, 0x3dd1f56a3c701192U, 0xbd9c3deebcfe3989U,
  0x3d9dd6fabdcda37aU, 0x3d20e5b83e2fb23eU, 0xbc00d40ebc9c9d43U, 0x3ca19671bdb85ca4U,
  0x3d63f42cbddc8df4U, 0xbd9737ea3d923fcdU, 0x3be81a2bbc9f8cf9U, 0xbc21b68d3c897c1dU,
  0xbd8d505b3d151b24U, 0x3c8953143dd2a328U, 0x3da56dab3d95a07fU, 0x3d4946303b9aea52U,
  0xbd90d1993d4b5725U, 0xbd498afd3df29c11U, 0xbb313a163e0185f8U, 0xb9af8d37bdbf354bU,
  0x3da5c042bd224156U, 0xbd57b6a13dc26f9fU, 0xbcd27edc3d418f29U, 0x3d648f9bbda98fd7U,
  0xbc88ca043d895af7U, 0x3d64614b3e04bab9U, 0x3d3fc6a73cabc5dbU, 0xbcc48b0b3c968340U,
  0x3d06f2abbb31ac74U, 0x3ddcab0a3e1bc08fU, 0x3d9f24f03d46667aU, 0xbbf31aa23c587a72U,
  0xbd4765263caf0c67U, 0xbd00420c3e01b12aU, 0xbcb8ec243e03bb2fU, 0x3d33f9103ccf9463U,
  0xbd45781dbda923feU, 0x3ce743293de3aa94U, 0x3a8626353cfdcf2cU, 0xbc83d156bd1a56f9U,
  0xbd7129b5bd4e0a5aU, 0x3dabe1173dd7c0b8U, 0x3c4055b23e00f0acU, 0xbd6cc380bda6aaaeU,
  0xbd8f9743bc9ecd36U, 0xbc46040f3d940421U, 0x3d97585a3dd91b63U, 0x3d9d8b0b3cd07da9U,
  0xbc9f20fe3d048656U, 0xbd1189303de096dbU, 0xbbfbe0a93d52cb35U, 0x3d705221bda15f69U,
  0x3da23139bd910fbaU, 0x3d5001773d8d4749U, 0x3da9b6e9bd46f923U, 0x3d8041fcbdb5a7f9U,
  0xbcfc13833ceab71cU, 0xba309a1b3e0abc81U, 0xbc32df8b3dcc4405U, 0x3d1b99c2bddfc32fU,
  0xbd3fc15ebd4eb48eU, 0xbd16bd2d3de8f4bcU, 0xbd4fd74abb53625dU, 0xbd2fdc59bdcc5ffcU,
  0x3df8572bbd8564a5U, 0xbd4416b53baf7d3dU, 0xbba49c2e3e0273b6U, 0x3d98ef09bdafbeb3U,
  0xbcbf0cebbd19b458U, 0x3bb7ad303dc63fccU, 0x3def99873dbc2fb0U, 0xbcd00563bd905bcaU,
  0x3dc19aacbd30be48U, 0xbcd0ffa53db22cb5U, 0x3d25d7783dcf1b4aU, 0xbd268f1dbdbf938bU,
  0x3d5b4ef9bdf49193U, 0x3cc7cda23dedbd2aU, 0x3cd9acca3c1e2e27U, 0x3d7abe17bdcda63dU,
  0x3cecbdefbba63517U, 0x3d6467de3dc73a01U, 0x3de559563d55c8c0U, 0xbd932604bd27d534U,
  0x3d41c2ac3d0d7650U, 0xbd298f0c3df916bcU, 0x3dd420323d6d7d92U, 0xbc0a954abd9cfbb6U,
  0xbca58da2bdd0580aU, 0xbd667ab53d61debaU, 0x3d4d678b3d5eaf91U, 0x3d8bc6d2bbd1f400U,
  0x3d0ee51d3c3c1ddaU, 0xbda039c73de95a9aU, 0x3d8e7ebabc83b6bbU, 0x3d2cc3fdbd16c3e8U,
  0x3de7d81a3c9a8f2eU, 0xbd86a4393dcc7642U, 0xbc1814dd3db90fcaU, 0xbd5d00fcbd4b65a4U,
  0x3cdc149ebdded252U, 0xbd7d0b843da2fef5U, 0x3c8369c6bcce5efaU, 0x3d421facbcbdb429U,
  0x3dc180f43d114e59U, 0x3d320e273da793cdU, 0x3d490d073c08e9acU, 0x3cb4670fbdff0216U,
  0xbccb5d0ebd6b461aU, 0x3d7534633c8ef586U, 0x3e095d183cacfc0fU, 0xbd1ae20cbcecd2a4U,
  0x3a66a262bd90d887U, 0x3d64da7d3c947155U, 0x3cf03bb33dde2942U, 0x3d34f288bdbb2482U,
  0x3d4051b7bba6f646U, 0xbd75a8a43d269085U, 0x3db2f52b3c91fb2fU, 0x3c0cf3313d08a444U,
  0x3cba688fbd5de9d5U, 0xbac4a0323d49f59dU, 0x3d1ca927bd196acbU, 0x3cc22fafbd7c324cU,
  0x3d9c1aef3cf80e69U, 0x3d54d8d03d11e0e9U, 0x3c4824c43db75eacU, 0x3d29e5dfbd00a67dU,
  0x3dd7093c3dacb37dU, 0x3dc380023d40a3c0U, 0x3d4e22e73d8bc8feU, 0xbb38c810bced1885U,
  0x3d1df5debd17d87bU, 0xba07a5d63e18d02fU, 0x3bca1de3bc82373fU, 0x3cfb07083c5efc63U,
  0xbd4d8f10bdba8b8dU, 0xbd0a1f1d3e0444d4U, 0xbbbd63073e01f6edU, 0xbd623a2d3d001190U,
  0x3c8e0ba5bdbf1be6U, 0xbb3448183e216bc2U, 0x3da73a8e3d70ce92U, 0xbc4d5db93bad5a9aU,
  0x3d9f90f53c88ebcbU, 0xbd730eb33ded8f1fU, 0xbd083f22bd71b172U, 0xbd838e023cb0f020U,
  0xbb2db02fbe0521e4U, 0x3c8326823dcbbd37U, 0x3d33fb83bd2a9d7eU, 0x3d6dfe76bd16d33fU,
  0x3d170675bd9397bbU, 0x3d0e715f3d8aae79U, 0x3d0a05713dd739fdU, 0x3d0a21e2bddd0ff8U,
  0x3d4748ddbdf7de0cU, 0x3d89ba983e112168U, 0xbd1df8eabd0471bfU, 0x3cd06bb3bc229eeaU,
  0x3dbdd0abbb18b884U, 0xbd8cad6b3da9e161U, 0x3dd182ea3b5d2424U, 0xbc7410423cbf1b47U,
  0x3d2385b43c4da165U, 0x3d5815213d375906U, 0x3c83a7f43c23fc1fU, 0x3dd1a09dbcc3240cU,
  0x3ca13ee0bdceacdaU, 0x3c86965f3d447da1U, 0x3d8bdc8e3d1608e7U, 0x3db68433bdf9d7d0U,
  0x3d1d1bfd3c129095U, 0xbb01a3423e226f0cU, 0x3d8fbc68b973bf3fU, 0xbcac30cdbd2e012cU,
  0xbd0740883c035d92U, 0xbb4453e83e1f1752U, 0x3cc22a883dbac903U, 0x3d487fd0bdb8867fU,
  0xbce219ba3d569c87U, 0xbd1a5e7ebd8a3281U, 0xbd8fe1613d56943bU, 0xbd5aa2483d3c8835U,
  0xbd208a2d3da0b388U, 0x3d84bf2abd3f7165U, 0x3da852d2bd1541a1U, 0xbc286e0ebcbda38aU,
  0xbdf51df03d3068b9U, 0x3d190d15bd34bcbdU, 0x3d9c27dbbe02f63aU, 0x3d96d40cbd71f2e7U,
  0xbe0a53533dd3eb44U, 0x3d95cc86be2da9b9U, 0x3c29706f3d6adabbU, 0x3d4e528e3df6d573U,
  0xbc57f8eabc6c5efaU, 0x3d8c8eeebe3c0b21U, 0xbd8c4e01bd922854U, 0xbcbc4edf3dbbdc3fU,
  0xbd73131abd2c13eaU, 0xbc03360ebd94c069U, 0xbdda7265bdbb8403U, 0xbcd6fd32bd9016bcU,
  0xbdf74d95bc83032eU, 0xbd4e144fbd6e5cc9U, 0xbdad45c3bd69d4a6U, 0x3d6d03243dd5cad5U,
  0x3cda329639eeac0aU, 0xbd9eae2fbd7e7820U, 0x3d001ea4bd2184e8U, 0xbd3882d83d162cb1U,
  0xbd7dfd483b13e170U, 0xbce7dd33bdbb4f0bU, 0xbd8826443ceb3779U, 0xbcd35d6c3dd62848U,
  0xbcc0cd783d1a67aeU, 0xbcd4a4efbe871dd6U, 0x3c6264f3bc2bdfe5U, 0x3cf04c60bd889442U,
  0x3cb256113d3e05baU, 0xbd3228cdbe22c222U, 0xbde1755fbb10d1a9U, 0x3d262a94bdc9e0e8U,
  0xbd93d0243db06d7dU, 0x3d4cb152be38555bU, 0xbda77c18bb122088U, 0x3d31bd483bca6d51U,
  0xbd3478c73d512e07U, 0xbc589cc4bd4932d3U, 0xbdbebd953be5b647U, 0x3c21692a3c41d520U,
  0xbd66e1113ceb86daU, 0xbc97d01cba205225U, 0xbcfbafcbbc4a658fU, 0x3db994f23ceb40d1U,
  0xbc7122543d54b654U, 0xbd2be0babc908384U, 0x3c105999bdc6e945U, 0x3d9b8f063d7efbf3U,
  0xbded46f03d55c024U, 0xbd05dbf8be0c6822U, 0xbd57c343bd832e67U, 0xbce8d35e3cf50592U,
  0xbc970abdbd2b1dd7U, 0x3d59b633bdc1d5d1U, 0xbd78accfbd542bf9U, 0x3d2741f9bd46feadU,
  0x3d28b6873db51ab3U, 0xbd5d826bbd3963d4U, 0xbc80b2773d29865dU, 0x3d3b1863bb2a653cU,
  0xbcf403123d3875fdU, 0xbc2c8015be06510bU, 0x3d7b6336bd91cc09U, 0x3d096c413db43135U,
  0xbdf94bcabdad8691U, 0xbd81a371bd5af258U, 0xbcc805163d82e5d9U, 0x3d45d42d3da6484dU,
  0xbd7460b63d78c554U, 0x3d179f76bd943ac4U, 0x3d236ab93b57b72eU, 0x3b892beabcf773d8U,
  0xbdf9222c3d93e162U, 0x3dbc2d5fbc5f011cU, 0xbc3e4680bd9edfb7U, 0x3d037aaabd0487bdU,
  0x3cc920813dba7518U, 0x3c32752cbdbf0480U, 0x3d132a5abd7810d8U, 0x3dace1db3d16f868U,
  0xbc550e96bd3cf8f5U, 0xbd4d8892be654d60U, 0xbd98eec8bd6893b4U, 0x3d8cd1af3dd4f5b2U,
  0x3c877e563dc27658U, 0x3d5386ffbe2ace32U, 0x3d6c78b0bc0d0583U, 0xbc2fd8313d2252f5U,
  0xbd883916bd0cbf40U, 0x3c8f763dbe145e26U, 0xbd9751823cb3ff1fU, 0x3d9cbe8a3dfe6edeU,
  0xbd95ea81bc98adbfU, 0x3d6e48aebd900aadU, 0x3c5d3beb3d6b709cU, 0x3d13c4653cc4cd63U,
  0xbd8ee59a3bb49162U, 0x3d76e92fbe4622a1U, 0x3c6574c6bcfa0f5dU, 0x3df02236bc1cb2abU,
  0x3d6227253d531a57U, 0xbcd88ce8bdb3f736U, 0xbd97b460bc9fd27eU, 0xbdc02abebc272e56U,
  0xbd3050e6bdb19608U, 0xbd458115be81b932U, 0xbcf5b7e9bd0ba59cU, 0xbcde66133c28fa5cU,
  0xbb9bb93b3de354c3U, 0xbd2080cfbe894b0aU, 0xbd83b449bcfa23cbU, 0xbcbd1f223da7b4baU,
  0x3da690653ce5f3acU, 0x3cb88014be3d010bU, 0xbda824e7bd124f8bU, 0x3d6f5a36bd2b25f1U,
  0xbcda195f3e2841b2U, 0x3d98cc09be69ef63U, 0xbdc19b773da6361eU, 0xbcfba6443da3fce0U,
  0xbcd060f0bd923865U, 0x3b5db82fbdf0534cU, 0xbc8531b2bc8f8b89U, 0x3cd43e653dbbf22fU,
  0x3d07cb7bbd193438U, 0x3d5bbb8dbd5f334aU, 0x3d86d94cbda09855U, 0x3b90e5133dad8596U,
  0x3d36d6bdbc6db086U, 0xbd491d0bbdc39079U, 0x3d8047ab3cafa711U, 0x3d33eb8abbb5f717U,
  0xbccdf1d23ce31485U, 0x3d4411b3be192624U, 0x3d9e147dbd001e02U, 0xbd926d9f3cb5b638U,
  0x3cec0029bcb88237U, 0x3c8183a6bda23b7fU, 0x3d0f55743d609569U, 0xbd1faed03de4a221U,
  0xbd1cc1de3ac53fe8U, 0x3dbad6c8bcafb456U, 0xbd25e045bd81f385U, 0x3c5756413d2f726eU,
  0x3c7c78313dda2de0U, 0xbc18bd2fbe42faa3U, 0x3d755fedbc3ba7bbU, 0x3d65f596bcc61bbeU,
  0xbda7a2fe3d7ea0e3U, 0x3e064fa0bc19d55eU, 0xbd11f5f03c73fe2fU, 0xbcffb7ccbc938f2cU,
  0x3d8057483ddcd94eU, 0x3d327418bd5774f3U, 0x3d9ed0e3bd337280U, 0x3da82e43bd106138U,
  0xbd161e03bd816becU, 0x3d22f73ebe3acea5U, 0x3ca9e0f43bab73c4U, 0x3dc14b233ddb8a0cU,
  0xbd976d6dbc64ffa6U, 0x3dd17ca6bdd997d9U, 0x3dd495cdbd7d1014U, 0x3d957fcebda85f4eU,
  0xbda980e7bd945573U, 0x3d425cfcbe1a64d1U, 0xbcbfc753bd8fdb3bU, 0xbd17e9d23cd5a876U,
  0xbc6d6e64bd3709d7U, 0x3da303d0be79c69aU, 0xbd9cd12d3d4bfac7U, 0x3d83949c3d77fbd9U,
  0x3d6f714abd349777U, 0x3d88b0d73d0b330aU, 0x3d2e0c67bd5b81b9U, 0xbd0b2eb2bd18c154U,
  0x3c8150bcbd881f30U, 0x3d9fa5efbd49d91cU, 0x3bd1af233d55f5bcU, 0x3d88b3b43d76a2aeU,
  0x3b80e15b3d8e807aU, 0x3ccdbfe3bc85b313U, 0x3d327a6c3d9dba1fU, 0x3e072fdb3d7be52aU,
  0x3d59c5883d2ff6f8U, 0x3d629e51bdfa46d7U, 0xbd287a653daefbfeU, 0xbd5e3e313d885d23U,
  0xbdc709fcbd48421cU, 0x3dd3c7a8be5eadb2U, 0x3cef2cf6bd6ee5a4U, 0x3d11448ebd9de659U,
  0xbd918db43d99d0fcU, 0x3d194fe1bde42429U, 0x3dd5af333c39c436U, 0x3cbf2c77bca9fac6U,
  0xbcdc35233c15f6f4U, 0xbd231de9bde63fd5U, 0x3dbcf0f63d39a274U, 0x3cb366a13de31183U,
  0xbd8318e33dda3c6cU, 0xbcfc0487bcb03cd7U, 0xbd272566bd2f8751U, 0xbd49385d3dbba0d7U,
  0xbcd5e82cbdbbcd88U, 0x3c865de73c17e39bU, 0x3d3c1415bc1ac142U, 0x3da99598bcbf2862U,
  0xbe154a2dbdb6a7beU, 0x3e0fb798be5a29faU, 0xbda6bf22bdb6f8f3U, 0x3da9e9e93af95600U,
  0x3d18a4463d7970c6U, 0x3c4da68dbd19cfc9U, 0xbd82ecc93d0201f7U, 0x3db15def3c506c51U,
  0xbd2deef4bda74067U, 0x3de59df33b767663U, 0x3d168cfc3d4f4527U, 0xbd29a6e43d97c7bdU,
  0x3d22c1b9bd85e4c4U, 0xbd946387be202e5cU, 0x3d040c7a3c8733d8U, 0x3d24b790bcf19ca7U,
  0xbc75a6053dbffdc4U, 0x3da6e912bdc569d8U, 0x3c81e05bbd2b8443U, 0x3d09f0fa3c44b414U,
  0xbe360bf83d5f605eU, 0x3dfe110dbdbb23d9U, 0xbd73fa8d3ca044daU, 0x3d72757cbe195f32U,
  0xbc7f9c8c3de32e48U, 0xbd958deebc706ffeU, 0x3deef76d3c107746U, 0x3dc7edccbda4c03dU,
  0x3b6a8e50bbd85a5eU, 0x3d6d24bc3d149638U, 0x3d584eadbc2025e5U, 0xbd6656ca3cfe0ebbU,
  0xbd9791453d322b89U, 0x3d3458ccbc9772d8U, 0x3d90eba73d3aedcdU, 0xbd244505bd12ba30U,
  0xbd91d134bdafcd87U, 0x3c8166dabd48d780U, 0x3d01b12fbd834d26U, 0xbd766be1bdf97c74U,
  0x3c4fb546bc5b5291U, 0x3b5abf53bd33d785U, 0x3cc4e690bd978904U, 0x3d88af2ebc66298eU,
  0x3cbc6c213cebf607U, 0x3dbae6b2bc59fb6bU, 0xbc113486bca1bfc7U, 0xba2752b2bd9ed9c1U,
  0xbe180decbdebeb9dU, 0xbd87222bbdb00fb8U, 0xbdc72fffbd2cb127U, 0xbc142cdebc09e5acU,
  0xbd1a792ebb9887adU, 0xbd4df11fbd3b304dU, 0x3d9f99913c820835U, 0xbd02c432bd5abb4aU,
  0xbd36b393bd324c7cU, 0xbc9222d5bd3f77f7U, 0xbd9fed083ba4a1f9U, 0xbd8b532bbcb1769aU,
  0xbdcbd9e73d6d4464U, 0xbc52c059bcf4fc74U, 0xbb0fc5ec3c88ea5bU, 0x3c199ab53dd050d2U,
  0x3c835541bdff4f9eU, 0xbc9bd5bebd99b719U, 0x3da8b0eebd1bffd5U, 0xbdb91c883da3aef6U,
  0x3aac969cbcd5f207U, 0xbde8a2bcbd41f32eU, 0xbda446a03cc3164bU, 0xbd49c859bcfd3b3eU,
  0xbdae912a3c861c28U, 0x3c89b04cbdd85616U, 0xbd21c1ed3d9dba2cU, 0x3d94d1993d72ce49U,
  0xbdb9d9723da3bb7dU, 0xbd853c82bd287dc6U, 0xbc8e4d4b3c875a1eU, 0x3de825343dbbb2c7U,
  0xbe2670a1be295f29U, 0xbd46ff11bdb616b8U, 0x3d0534dcbd27b7ceU, 0x3d215ab43bb85266U,
  0x3d00a118bdd197d2U, 0xbc58ec82bccfb994U, 0x3d719dc2bdbacd28U, 0xbdda6a18bd8d5516U,
  0xbdaa554bbd695ffeU, 0xbd5fc8693d841ddcU, 0x3c4f7ce4bcbbf4a5U, 0xbdac2209bc041701U,
  0xbc82b298be331c17U, 0x3d527b4bbd08c0aeU, 0x3d48400bbd8e3b89U, 0x3e070e743d467d1fU,
  0xbbcb0ab7bdc4e73dU, 0x3cf5c7a4be078583U, 0x3db23b8dbdb6a626U, 0xbcba83763cbdd0c6U,
  0xbd2916dbbd69f3b2U, 0xbdbd4da5be3d60ceU, 0x3daccd233d36269eU, 0x3cf0c51c3d51cab3U,
  0xbdf1d39b3df8f274U, 0xbd4dfe64bd2eeeb2U, 0x3c0c6c82bdb0eff2U, 0x3d2b1e5f3cc98b3bU,
  0xbddce01fbcf44c03U, 0xbc0c6d50bdbda279U, 0xbd2f18453b9c70b4U, 0xbcdeb955bd3a4762U,
  0x3d4b49263d3f37efU, 0xbd693c7fbd59f508U, 0x3d53fe3dbd3298b4U, 0xbc705518bd24e0aaU,
  0xbc867322bd425829U, 0x3de49f94bd5dfc86U, 0x3d1ae3c5bd5c6a02U, 0x3cefc7623d03ee87U,
  0xbe15091abd18bb05U, 0x3da5f6d9bd9d3e72U, 0x3cfe06bbbc97c8c1U, 0x3ce4f89b3dc36d59U,
  0xbde6f8703d4f97ffU, 0xbd090692bd63b21cU, 0xbc9b69d23d535691U, 0x3c53dce6bdd87182U,
  0xbdc38f513dc1d0c1U, 0x3ddaac55bd03ba1aU, 0xbc249c563d9c6a29U, 0x3d156de0bdc86fb5U,
  0xbca9a6ee3dd48e56U, 0x3dbd27e6be0fda71U, 0x3c9034003ca9a46eU, 0x3cf1f7edbc31a7beU,
  0xbdc8a54ebd28ba24U, 0x3d2bd69abc8a510aU, 0x3d6f6069bc957674U, 0x3d02522abce22457U,
  0xbd0a0c5a3dac98a7U, 0x3d97061c3db3cca0U, 0xbbf61fed3d34cb96U, 0x3c9ac9a0bda05d54U,
  0xbc5823f83d4f8264U, 0x3c9ef72bbe0cbac3U, 0x3d8ac7c43d4d4c50U, 0x3da21eb43d01750cU,
  0xbdb7bc063da63e1dU, 0x3d63a2e2bdc1eafdU, 0xbb53a5223d442cc1U, 0xbcf00fad3df6b58aU,
  0xbdf016b83da4a07dU, 0x3debb1a9bd87eb24U, 0x3d3a5a1a3e0676d5U, 0x3d43e7df3c9e481eU,
  0xbd784fca3db5cef0U, 0x3cf2f2d6bd8794efU, 0xbd865ed43d220dc8U, 0x3c7d81cf3d2f05fbU,
  0x3ce79c583db9e3ffU, 0x3e321401bcbeff91U, 0xbc125a493cb31744U, 0x3d236fba3cb81c27U,
  0xbd2d0133bd9d3419U, 0xbcb03a1e3e07bb74U, 0x3d0037493e033ba5U, 0xbd3e735abca510d4U,
  0xbb85a93cbd428ebeU, 0xbd8c63623d9554f5U, 0x3b88d2c0bc6a0673U, 0xbc1b8a57bd254f52U,
  0xbca57345bc895effU, 0x3c1dd2133d4b9780U, 0x3d4f6aae3d726c29U, 0x3cadccff3cd4e88dU,
  0xbc61df583d5e0d87U, 0xbd2c26403e18291eU, 0xbc46d0a73d6fa49fU, 0x3d8e49493cc371a3U,
  0x3d812ad7bdf53fa5U, 0x3de9211d3d1c8d3bU, 0x3c3e0ed23d3424b0U, 0xbd56d582bd661493U,
  0xbd196522bdabc69aU, 0x3d78e5443dda2d7dU, 0xbc254f4e3dd353b8U, 0xbd7c9c46bcbaf603U,
  0xbd2ca0d03d8e3c2eU, 0x3d4b53ca3e1d32f8U, 0xbc83d53cbd3791aaU, 0xbd4013b0bd9d6df9U,
  0x3ddb0dc0bc93c17eU, 0xbcce2d16bca7dd8dU, 0x3baa05493df86e4aU, 0x3d9dd65fbddef8bcU,
  0x3ca3237cbbe2b44cU, 0x3c7d9d073c820ddfU, 0xbc08e76a3de72acbU, 0x3d17339fbd24ba20U,
  0xbbaeb3f73dd5bb53U, 0x3d4651213d9654ceU, 0x3d847a7d3afdba08U, 0xbd3dc9b5bc8bb1d8U,
  0xbd0688e7bdd98702U, 0x3d3c61283d9289baU, 0x3da45ea63dbdb84aU, 0x3d3aab15bda8b25dU,
  0x3a64343fbca10324U, 0x3babd64c3ddd2de5U, 0x3d6ed06c3c6ef748U, 0x3d2392d3bd1c0de3U,
  0x3d349cdcbd8f08f8U, 0xbcb7ed9b3d175c24U, 0x3d3636503d83c77fU, 0xbce6e42dbde3e62cU,
  0xbd813cc9bd10069aU, 0x3b9304d23d117a6dU, 0x3de292fb3d8fa131U, 0xbd988e23bda2875aU,
  0x3d48f38ebd1a4e9aU, 0xbc9098f93d4bfbadU, 0x3d9877c93ba9c8b8U, 0xbdb2d70ebb8100b8U,
  0xbd3fd9cabd9a3f36U, 0x3d9d56093dd7952aU, 0xbd583e5d3cd7bae3U, 0xbb0f1fc6bbc5648dU,
  0x3d9a958e3be5fa8fU, 0x3ce0148a3dfbe51eU, 0x3cfff2cb3e03258cU, 0xbcc4a1a2bc1aef18U,
  0xbcf31b173be20e2dU, 0xbcb9c8193defedcaU, 0x3d3bdc9d3ddf8bd2U, 0xbc924c3f3be30329U,
  0x3c77f3203d3f4417U, 0x3d396be23e0e2506U, 0x3cc9572a3dcadb2cU, 0x3d86a1173d2924f1U,
  0x3de73dbb3d941cc9U, 0xbbc9c0213b392304U, 0x3d219d163caae72aU, 0xbd2ab06ebde66c36U,
  0x3d5987f73d44d7f6U, 0x3cee3e5ebb1cd9e5U, 0x3cbc128b3d9e64f6U, 0xbc16937fbd8a7083U,
  0x3daac8913d444552U, 0x3dc3665a3d67bc4dU, 0x3cdedc6f3ce18c8aU, 0xbccdb1dbbdf4f461U,
  0x3d03cb17bd86e437U, 0x3d1759b03de3af68U, 0x393aeff8bb23da68U, 0x3d5f2417bd62a4faU,
  0x3d3042de3d5a0985U, 0xbca299ea3d855fd2U, 0xbd1f835e3c34bb86U, 0x3c20b3c53cd27779U,
  0x3dae90b93d060eafU, 0xbc3730733d8b669aU, 0x3d78f5c53de78071U, 0x3c3b55293d5d489aU,
  0xbd122250bd394a6fU, 0x3d3d56ef3ca93914U, 0x3d0525923da2cb7bU, 0xbd849e04bd62a1b4U,
  0xbd9ae7f13bab79a0U, 0x3d8a22c83d3a462bU, 0x3a1538913dca94deU, 0x3c443effbd8ebd6dU,
  0xbdac9e543dd83fadU, 0x3d50f0b93d031eb9U, 0x3d913aebbc9e062bU, 0x3d81f3863d04e124U,
  0xbdb244e6bdca1893U, 0x3da12a6e3d20786aU, 0x3c880157bd055a9cU, 0xbc94e7b0bd0428faU,
  0xbcd78607bcf3f4f9U, 0xbd2333e33d609e76U, 0x3dd5c0323d2211d8U, 0x3d415482bdd5796bU,
  0x3d6b43dbbc3bd678U, 0xbc81cee73d95684bU, 0x3953a8863ddc2d59U, 0x3d8186c0bdab6ab9U,
  0x3d40304abdbb4917U, 0xbcfc2db73deeae2dU, 0x3d16d4a33c9003d3U, 0xbba81c24bde17543U,
  0x3d64cc5dbdfd2cc4U, 0xbd2bd27d3cf10bf8U, 0x3d6625623baa8217U, 0x3dd628c7bdf59275U,
  0x3c565056bc9df6b4U, 0x3d0963fc3d93787aU, 0x3c6820a53cd12298U, 0xbc87c839bd18deebU,
  0xbcc6460a3cc2ee71U, 0x3cc8a7ca3da76ee1U, 0xbc297f813b2ccd92U, 0x3d890f45bd1f0e07U,
  0x3dbc527bbcb42aebU, 0x3d68abc43dfc2096U, 0x3d239bdd3d4102e5U, 0xbd7d06b4bc9cd871U,
  0x3bc1b552bd64cefdU, 0x3dba33b43dcdd5e6U, 0xbcbffce8bd350a2cU, 0x3ba2e146bd8bd44bU,
  0x3da839e7bdb246d9U, 0xbd60bfc53e0af757U, 0x3c87a492bb5b99bfU, 0xbcddcead3d06c1b5U,
  0x3dd3a0a5bd8e3933U, 0x3d2400933d9cb866U, 0x3de8458b3d092cdbU, 0xbd6bf0c3bd8f0301U,
  0xbd417118bd52586bU, 0xbd4c42203ca4404bU, 0x3c29884f3dfb52f7U, 0xbd13eafbbd53d023U,
  0xbd28d99dbdca783dU, 0x3c30ffe4bb96b102U, 0x3d60d8a83d431d22U, 0x3d65efa2bd7b0e88U,
  0x3db11969bd361bc3U, 0x3d532aa93e019186U, 0x3dadc983bd3bec9bU, 0xbc8df2303d4ad38eU,
  0x3cbc940ebd467847U, 0xbcee249b3db6d183U, 0x3da4598fbcd4b4faU, 0x3c7ffc4f3d43edd3U,
  0x3d8c02d0be1d3d27U, 0xbd263d823e341a4dU, 0x3dab3ddfbd7f4195U, 0xbd990e40bd808235U,
  0xbc5a1a85bd9f7bd6U, 0x3c1ebe993e2e5b66U, 0xbd0b9b7dbc1dd7b2U, 0xbd07634ebd1d8518U,
  0x3d18d049bdc2deb4U, 0xbc815a013daef215U, 0x3ceb4e89bcb1f422U, 0xbd03008fbdc181c1U,
  0x3d28c314bd9d7b3bU, 0xb93d02853d1a740bU, 0x3df1e0af3d579650U, 0x3d493ba33be8cc00U,
  0xbd4d0c40bcae0f2cU, 0x3d5255f0bb75cebcU, 0x3da6c812bb8aed5cU, 0x3db5a6f2bd119d05U,
  0x3d97e7303d10ccdeU, 0x3c2843e43dfb91b4U, 0x3d6fdc933d95603cU, 0xbd46ce0cbdd0361dU,
  0xbd88c8a5bc4aadacU, 0x3d3c440b3d57a7f1U, 0x3d8f1d9e3cb6ce0eU, 0x3dab2b6cbe082b6eU,
  0x3c8ebf423d690a7aU, 0x3d0bee8a3da6bbdaU, 0xbd39c4a3bd608af7U, 0x3b17d4953a4e931aU,
  0x3be464113d1d35e9U, 0xbd5661ec3df2e6b6U, 0x3d9a403c3d6d000cU, 0xbd85e03ebbee78abU,
  0xbc8b8d86bda53c49U, 0xbb76b75e3beae406U, 0x3d5018513c8a4199U, 0x3d187a1cbda3ab3aU,
  0x3d4674203be9d992U, 0xbd7a43de3d667565U, 0x3ca47c5c3da5e914U, 0x3ca87af03b11cab6U,
  0x3cc55547bb2bda5fU, 0x3cf8cca23dbda9acU, 0xbc8c9a7a3d9d6b94U, 0xbd8b729f3b96f413U,
  0xbcc9c36dbde2194dU, 0xbd5072703cc8620cU, 0x3da4211d3d9fdd28U, 0x3d01b856bd89f407U,
  0xbd57eb57bca4c7e5U, 0xbd40292c3c1f1722U, 0xbb03b6dd3db4dcc5U, 0xbd4e7a55bd6fe4a6U,
  0x3d422015bc907188U, 0xbce765c03c1bede4U, 0x3c7c14c63d7441abU, 0x3ae92dc9bd521776U,
  0xbd2d4546bceedfe2U, 0x3d1b32f63da3e177U, 0x3dbef931bd022643U, 0x3d5842d6bb784167U,
  0x3dae3bc9bd84ccc5U, 0x3c35f3cd3c08a110U, 0x3cf5ad063cab8e19U, 0x3d2e63c2bd69a745U,
  0x3d6c6c78bd237171U, 0xbd5342bb3dc7312dU, 0x3c6b20b5bd41afc6U, 0xbc19760c3c4ddfdbU,
  0xbc22f73ebd9609b7U, 0x3ddba9f5bc64f9cdU, 0xbd2167f33d0b8d16U, 0xbd87f8693d93a34dU,
  0xbd77fe90bd9261e0U, 0xbd9205613dd6b95fU, 0x3d995b87bd4ff571U, 0xbd0485f6bd3337edU,
  0xbd1d4b4abdef6a48U, 0x3dbbc3a73d122140U, 0x3d12f9cdbb7f76ebU, 0x3af963a7bdd1658dU,
  0x3cd5a62e3c4b7d81U, 0x3dd210433e09fba8U, 0x3ddb1546bc62a8e5U, 0x3bde3a3d3c6f8149U,
  0x3d24c980bdb73fefU, 0x3da70da23d869715U, 0x3dd2b4413dd83149U, 0x3ca6585bbdb6104cU,
  0xbcb87b8abe122b56U, 0x3d8d3d253d31f64fU, 0x3d6eb1c63cd2e251U, 0x3d197e7ebda92526U,
  0xbd5eff7dbe020992U, 0x3d7e79953c0117f1U, 0x3d2c4c513cbe4638U, 0xb9c7f713bdcee19dU,
  0x3d45469ebd59276dU, 0x3dd5cf063d2b3a62U, 0x3dacb6403d223a13U, 0x3d7072a13b923225U,
  0x3dd04bdb3d86c92bU, 0x3dd01cef3d2ea679U, 0x3da5e364bd026981U, 0xbdaa85863c298fccU,
  0x3c83500dbcf7bcdbU, 0x3c5035803bd71634U, 0x3c38b94b3d14a719U, 0xbd0f2e9c3c7454eaU,
  0xbd696678bc83c2bdU, 0xbd00ca113da172b6U, 0x3dd7aa15bd1807c1U, 0xbc9187ecbdeff5d8U,
  0xbd08724ebd044318U, 0xbd3feb343b31d8b1U, 0xbbbbdcd93db553a8U, 0xbcf81f0cbdcf337aU,
  0xbc85dcb3bd5bb4aeU, 0x3cb9da443de4de0eU, 0x3dd7832c3c8618d8U, 0x3bfa01463c126ff8U,
  0x3c1569523ca52fa6U, 0x3d4353f2bcce0afaU, 0xbd192119bd1acc67U, 0xba03924ebdcd7e53U,
  0x3d12bb993d5ee21eU, 0x3bac202d3e1b9c0fU, 0x3ca1e2493d22833aU, 0x3c3eef483b5a6e0bU,
  0x3dd2e30ebdef3c8dU, 0x3db8d6de3e0c0b4cU, 0xbaaac42cbc3c3117U, 0xbb8826ffbc702009U,
  0x3d73dfc13ca62c3bU, 0x3dae6c683de4b51bU, 0xbc8930523d3dda09U, 0x3dadb2fcbd8e9e65U,
  0x3d9829173b22f052U, 0x3d4250a93d9c031dU, 0x3d18f3693dc54322U, 0xbd4f7c47bb8c32cbU,
  0x3d10a1d2bd6b1a2bU, 0xbd1d0d8c3e049099U, 0x3db666d03dd6c470U, 0x3d968fc43ce1a7b0U,
  0xbcb748563ce994c2U, 0x3d0152483d15e261U, 0x3d8a5fbc3dc0e562U, 0x3d8134393d1d0244U,
  0x3da27f85bd8c79d8U, 0x3d65024d3e02bae1U, 0x3d70d2793d6edc97U, 0xbd338f1c3c479041U,
  0x3d9d867dbda16fe8U, 0x3dd450773cff48d3U, 0x3d8b8755bd058d6eU, 0xbd1c84873c61c143U,
  0x3cec9d623cdd61f4U, 0x3da7cf093e15fd1eU, 0x3dc0320b3de34a67U, 0x3c01f080bc6faec7U,
  0x3d9a6d32bd6c68c2U, 0x3db023303e23cbcdU, 0x3c5db5e83c80770cU, 0x3c8b5931bdbe5be1U,
  0x3d46c938bdb58b95U, 0x3db6c36a3d55df7dU, 0xbbb9fac03d90db8aU, 0xbd8690b3bc444b69U,
  0x3d51741ebd83a643U, 0xbda2ddca3d301d46U, 0x3d827bd1bb227902U, 0x3d988f9cbd838be3U,
  0x3dd09abfbc77aad3U, 0x3cdb7d6c3e181be4U, 0x3c5a182ebc580990U, 0x3be21b09bdbdd047U,
  0x3cfce273bd202583U, 0x3d59744b3d9f1a36U, 0xbd2c07cc3e01fa5aU, 0xbd69fe2ebd8adb6cU,
  0xbc3022913d84f1e1U, 0x3bea2c9f3d50ac4cU, 0xbbad74773d653573U, 0xbb98bf8d3d03344fU,
  0x3d89aa3d3bf61916U, 0x3c057d233d2c4e7aU, 0x3df969a4bd20750eU, 0x3d8a99edbdcedf1fU,
  0xbd9ce1eabced370eU, 0x3d16ff543bd78cffU, 0x3cf0d2dabc1622a0U, 0x3d9ee36f3d2ec5d5U,
  0x3d781476bc46cf25U, 0xbd0e18f73e3473f0U, 0xbc63dbac3ca7503bU, 0xbd1dcd523b8468d1U,
  0xbd5484b6bcfd1ab2U, 0xbd1f5db53dd8e296U, 0x3cdecb343ccb9948U, 0xbd75372bbcff532aU,
  0x3d64e66b3d6fca1aU, 0x3c113d793debcb5bU, 0x3d6bca0fbcc2283dU, 0x3db1945cbdec3b28U,
  0x3db5350abd93a151U, 0xbd215e7c3e0dd160U, 0x3bebe35a3dc84edfU, 0xbb4e0416bda153e2U,
  0xbdbcfa143da660b2U, 0x3d900aacbd984c31U, 0x3d01e0adbd49ebeaU, 0xbccc9dae3d09d559U,
  0xbdbf9ccf3bdacaf3U, 0xbc071e53be0cc2f8U, 0x3dd293443d8ff41cU, 0xbd8275a83d2e9d4fU,
  0x3d1b4ed63d1b0c87U, 0x3d8a4b2abd05aae0U, 0x3d59d62bbd5f4d72U, 0x3de23add3da02a4cU,
  0x3c63a1eabccc2aa2U, 0x3dc256b5bdad4a34U, 0x3d053ecfbd038e2bU, 0x3d7a403f3c800c83U,
  0xbdd9e6f03c211ff5U, 0x3dbc0303bdb8eeafU, 0x3d61984fbccf64deU, 0x3c83e6f439fab666U,
  0xbdaf89b03dca203fU, 0xbc62942cbe0fd36fU, 0x3d8051583da5399cU, 0xbd5cc1173d2023dbU,
  0xbdd69fd63d41f425U, 0x3dc6ebccbdb977fdU, 0x3c6e16b1bd3b17bdU, 0x3d24e6883dd44b6bU,
  0xbc46d8623d7a1ae7U, 0xbd132893be024dfeU, 0x3d92cccc3becd6ccU, 0xbb1dcc033d2c59f3U,
  0xbd1284e33deb9744U, 0x3d1b67d5bc0a3213U, 0x3c00cb8d3c3c9acfU, 0xbddc81583d2011d3U,
  0x3d79df593dfd4a7fU, 0x3d93cd70bd9febf9U, 0x3b2c69b4bcb4fb25U, 0xbd1fdbc93d9124caU,
  0xbd8b928c391bdbadU, 0x3da79ba9bd30b1adU, 0xbbcdcc3cbb330f46U, 0xbd810a8b3d130b89U,
  0x3d1a9a1e3be2be07U, 0x3d89f749be171de6U, 0xbd6afa003c42fc95U, 0x3d10bbe23d71c807U,
  0x3d4ff49f3e1ee5e2U, 0xbcd212d2be0ca155U, 0xbd822a743db2508cU, 0xbd847248bc9a63cfU,
  0x3c851c3bbca2ad1aU, 0xbd09a1dcbe2770aeU, 0x3daca0e63c89e3aaU, 0xbd51a973bc27f42bU,
  0x3cf6630f3e14fbf6U, 0x3cdfc2c3be2badb5U, 0xbd3d49a63d3e0078U, 0xbd2e71dc3d932334U,
  0xbd4e19653e2c069aU, 0x3d61bb2bbced1f65U, 0x3d11ed27bda8d0eeU, 0xbb81105a3dd13b3dU,
  0xbd99fb1c3dab381eU, 0x3dad9f49be65ae3fU, 0x3d594bd63d8175ecU, 0xbd61e58ebc7db9b5U,
  0xbde131363d8266f6U, 0x3ad512bfbdb7b400U, 0x3bcaa0043c1b160dU, 0x3d5a39e0bcc867c2U,
  0x3d295a10bcf30532U, 0x3dc518d2be15fb9dU, 0x3ce6893bbb33700aU, 0x3dae3b4d3d616966U,
  0xb9ef26463d9a7268U, 0x3d1e4cfdbdbb5197U, 0xbd49e8553b1687fbU, 0x3c837f093d90335bU,
  0xbdd9ed603dab84e7U, 0x3c38cd1bbe022d5fU, 0x3c86b93c3d974631U, 0xbd11b6db3dcf7ac4U,
  0x3d0250c33d37c4a3U, 0x3de99c4cbdf8d91fU, 0xbd1209bc3d2ccca8U, 0x3d8f460a3ce54099U,
  0x3cc423fc3d28f794U, 0xbbb47a1dbcf73fccU, 0x3da58668bd9ea7cdU, 0xbb89471fbd888d9fU,
  0xbd524dcd3de8c90cU, 0xbc24b4e1be17894bU, 0x3daf9403bc31e36aU, 0xbc579cd93dd7c86fU,
  0x3d0fd43e3d7ef731U, 0x3b86ba90be0d4dffU, 0x3ce546b2bce8f9ceU, 0xbd88020c3d848965U,
  0x3d2876543d687680U, 0x3e017667bd126184U, 0xbce84b5ebd5fa6a1U, 0x3cdb14f63bb197cfU,
  0xbc6007dc3daf4dceU, 0x3cc0f1acbde821c4U, 0x3d0dbbf5bb43cabaU, 0x3d1a12163dd2f11dU,
  0xbd9407543c9ef462U, 0x3cc36875bd97f1d7U, 0x3d02791a3d73d324U, 0x3ddec29d3c25dc17U,
  0x3c9162453dabeb43U, 0x3d7f8d8dbd3797fbU, 0xbd8d3d823c9e9562U, 0xbd8c2dda3dfb4788U,
  0xbc1205603dbc7b81U, 0x3d1496c43c05fe2eU, 0x3ca113f1bcbf55a8U, 0xbc336cc2bd2263f6U,
  0xbd76b25c3e287d29U, 0x3b1b72f2bbebb6c6U, 0xbc048f4a3dc40137U, 0xbc36aa653d22f6c5U,
  0xbba89e4c3d1744e6U, 0x3defda1dbd25b7d3U, 0xbd64f2473ce3e736U, 0xbd56e7733dc99bc0U,
  0xbca983c73c6315dcU, 0x3d8b09f6bdf22573U, 0x3bb593e13b616e84U, 0x3d27e73b3dbb730fU,
  0xbda44398bd2a68eeU, 0xbc6e0eacbe191e78U, 0x3d85ab41bd0c5df0U, 0x3bc68faf3d574c87U,
  0xbd7076a03e05e043U, 0x3cacc166bdd88bcbU, 0x3cef40eebd20f99eU, 0x3d1079fc3d798b38U,
  0x3ccb33fc3c9a36aeU, 0xbcd0e10bbd99f0bfU, 0xbd22b9c7bd509cf6U, 0x3d11b2d33dee94b8U,
  0x3c4ca2eb3d058c9eU, 0x3df578f1bb3b84cdU, 0xbd931c383ce4b4b8U, 0xbd8b4f463dc3b103U,
  0xbbe488da3dbc21d7U, 0x3d6be72ebdf1345fU, 0xbd839ef83d4072d6U, 0xbd9250d63e19317aU,
  0xba145ddfbc99bed0U, 0xbd0c4408bc592e88U, 0x3cbba0923c85874cU, 0xbe0b4a983e10d37bU,
  0xbc99cff93d993145U, 0xbce8f311bd7f8e57U, 0x3d8f69e1bcd61229U, 0xbcd69a213e0b4544U,
  0xbdb66cc93de07a9fU, 0xbc4682ebbce0e4b4U, 0x3d32a0fe3dd52cb3U, 0xbdc5709ebc092fb8U,
  0x3d09a5c33ce6dcf8U, 0x3dcac0a6bc49a3d5U, 0xbd64c9433d226bfdU, 0xbc28f0a23d9abe8bU,
  0xbba0eca3bc018fefU, 0x3ddcbef5be2a198bU, 0x3d3b50afbc453da1U, 0xbcd0026a3d156023U,
  0x3d2e8aa13dd50871U, 0x3d9d34debe2d6d6eU, 0x3c5016c8bcc0ffb2U, 0x3d4b3be33dc71968U,
  0xbde19693bcd5ce89U, 0x3caeb2cebc9c765aU, 0x3cc59fb0bb910dbbU, 0xbd81e9e73d09dae0U,
  0xbd0380273c28c379U, 0x3ca810bcbe0cbe0aU, 0x3d67a9ee3b24ff72U, 0x3c22d0ae3c19dbedU,
  0xbc40886a3da5f482U, 0xbc80009c392a7618U, 0x3d90932f3d90ded1U, 0x3d6ef9a73df53dbcU,
  0xbd9f161e3e054403U, 0xbb0fcbf43c4e9300U, 0xbd1262873da9088aU, 0xbd5b0bb1bd1ed497U,
  0xbdbccd273d91700cU, 0x3d8cfd16bdd3d995U, 0x3ce602213d77b0f6U, 0x3da1ac0b3e0b33f3U,
  0xbdd3bec83dca8527U, 0xbd4be3fdbc026421U, 0xbacdf6a93bd482b6U, 0x3cb246cc3d55082cU,
  0x3ca3845c3de4410aU, 0x3cf2a7303c6beee6U, 0x3d8c21a53dc6f817U, 0xbcb75a2b3ce5b3a0U,
  0x3d5c341e3de1522dU, 0x3dd649a13ce01ab9U, 0x3dbd7271bd83b401U, 0xbd167011bb0daf83U,
  0x3ca54eba3cc3933fU, 0xbcd9499cbd1d8721U, 0xbd0fe241bca98b7eU, 0x3c32b0393d455480U,
  0x3d2ecd43bcf524f4U, 0x3ceaf994bdcf478fU, 0xbd6007383cb0c2b8U, 0xbd876c26bc9ef676U,
  0xbbd7080b3d804782U, 0x3cdc0341bd336749U, 0xbd24fa1fb9ab1dc1U, 0x3cb6c8d4bc251d73U,
  0xbdce8e983cd31fbbU, 0xbce27d18bd43c226U, 0xbd53bb563d54acdaU, 0xbd309435bd40d028U,
  0x3b8b0e1d3d26b269U, 0x3db8ed58bcca592cU, 0x3d26570d3ce3da98U, 0x3d03abc03d5aafb3U,
  0x3d1b4d8a3d47e099U, 0xbd4f23d2bd9a10e1U, 0xbcf69a5dbcc4e997U, 0xbd9eb33f3d2894e9U,
  0x3c61fe8d3df557baU, 0x3caa025cbd07db3bU, 0x3daa082f3da4ac4bU, 0xbc1503613c7d50e4U,
  0x3c9e9a60bceb99c1U, 0x3c9c8cafbdd90f25U, 0x3c3a26a63d45ec28U, 0x3da5a11b3db0ad91U,
  0xbd74b3ee3d87516aU, 0x3ca352eabd3084adU, 0xbd80b3403cb60870U, 0xbc0693c33c99975bU,
  0xbdaea40a3d5a1d84U, 0x3d0d6730bd2a7b7aU, 0x3dac7fe33d2651e4U, 0x3d6426973d714ca1U,
  0xbdc4de403d8226cfU, 0xbd076b8abd4213d7U, 0x3de9505bbccb9538U, 0x3d329ff53d82486bU,
  0xbdc0f077bcb3dd46U, 0x3dc10fc4be0b173dU, 0xbc8dea9d3da96b16U, 0x3d1b35c53d52c91eU,
  0xbd9f78aa3de33879U, 0xba03b149bd1d60aaU, 0xbd6e54ed3cc8444aU, 0xbd1f4c93bd008e20U,
  0xbc8c70a93dd5df03U, 0x3d4e9a8fbdcf0c6fU, 0xbbe05348bc81d630U, 0xbc8133363d0a167aU,
  0xbcb0ee633df83d71U, 0x3dc799efbc67c25aU, 0xbd0c007a3d10cbe5U, 0x3d0dbdd03da94995U,
  0xbdf052d63dc33f05U, 0xbd8dd5c9bae43988U, 0x3da031f63d942bdeU, 0xbda2d51dbcc8db92U,
  0x3b30d1203df288b8U, 0xbd756c96bd62549dU, 0x3d8139a93d01069fU, 0x3da3db7ebbfada01U,
  0xbd50eb07bd0b465cU, 0x3d8a98b6bdb55f09U, 0x3dbbecfbbd07ded9U, 0xbd422545bd884900U,
  0xbd46d607bccedc0bU, 0xbd0eb90bbd3c7f5eU, 0x3b8d591d3cd694e9U, 0xbd2138e23ddc7d0aU,
  0xbd20d76a3ddbddbfU, 0x3d9ccc49bb452c63U, 0x3d4d2ccbbb9b66eaU, 0xbdbc8e123dc68701U,
  0xbdbec15e3de260d5U, 0xbd8922f7bcd76fd9U, 0xbc572d34bd367a88U, 0x3dafae553b881775U,
  0x3cd1d5013de527daU, 0x3d181a03bd41e81aU, 0xbbba9f5f3d9ada63U, 0x3dc253b7bc3694b9U,
  0xbde81ed13c9f6dbbU, 0xbd87ca09bc4eba35U, 0x3db245a33dc1fdaeU, 0xbd29a5553c6ac6e9U,
  0xbd4bd1483ce8ccb9U, 0xbc0d9470bcd56c92U, 0x3d8035623d62160eU, 0xbd306d013dba7bbaU,
  0xbd9dd4193d3a49ecU, 0x3d2c5da53c96d5f2U, 0x3de89e8cbd96af2dU, 0x3c6cdcfebd72e1d3U,
  0xbd000c2e3a95f951U, 0xbbc1cbd8bd775017U, 0x3d1ea0e33d8779b8U, 0x3b9b810f3db4a53aU,
  0x3c78532e3c9e4a54U, 0x3d707cd9bb91589bU, 0xbd1581f83d6a24ccU, 0x3d03d3ae3dab77deU,
  0xbd69683b3ce57e34U, 0xbced75c7be05dfa1U, 0x3bdf0e6ebc92426dU, 0xbcf312213d148841U,
  0xbd03957ebd0d85f3U, 0xbd703a22bd202e51U, 0x3d11c5b33d9fdb52U, 0x3d65094cbc96b341U,
  0xbd84038a3d25501cU, 0x3b575fa8bdf024f0U, 0xbc1128c0bd50a736U, 0x3c944e77bd502de0U,
  0xbd679059bc4012e0U, 0x3dcc01fdbe32f988U, 0x3d5ee7033db3cca8U, 0xbd4edd713d0898bbU,
  0xbca8f34f3d59a791U, 0x3dbc5ae4be16f2dbU, 0x3ca62499bbe44888U, 0xbacc91ab3b9f6de2U,
  0xbda0549abcc7bf0fU, 0x3dc6d46aba85d314U, 0xbc48b64a3d134696U, 0x3d46f4713d8fa3ceU,
  0xbdcf56c93d26ae8cU, 0x3a65fc5abd83deaaU, 0x3ddad08b3d56967dU, 0xbd4efeba3d907097U,
  0xba7c39e63d54b1b7U, 0x3de8c9e03d2c034bU, 0x3bc61b0bbc8efcd0U, 0xbcf264533db94202U,
  0x3cad353ebc0bef11U, 0xbb598cd5bc2ee9d7U, 0x3cb6bc133c39e45fU, 0x3bb35300bd8e54b2U,
  0xbc8ec6e73cbf844aU, 0x3dc047e6bd4984deU, 0xbc4af2d23dc6660cU, 0xbdd65108bd0a94ceU,
  0x39c33cf53cb118beU, 0x3dd649e2bd332b9dU, 0x3ddd29c63d7dc3e6U, 0x3d52b0323ce446aeU,
  0xbdb7f11b3dfe9ab2U, 0x3cf981043d6e6ef3U, 0x3da7d1803c91bdceU, 0xbd8d5ff73dac6e1cU,
  0xbce55c4a3d5b8faaU, 0xbc2906e8bd0ab0feU, 0x3db5918bbcfeb5b3U, 0xbcc4c4723dbb6f7aU,
  0xbcda5ce23dc729a8U, 0x3dbe5286bc2695dbU, 0xbc3a6a6f3dbbe38cU, 0xbd8be52a3dc93030U,
  0xbcc68a1a3c81b5b9U, 0x3d37ac40bb972f26U, 0xbd1f87ba3dba8d65U, 0xbd5eb20fbc8504f6U,
  0x3caa54073e387356U, 0x3dc1f19c3d9aafd8U, 0x3c93ba093d3cd658U, 0xbd94bc763d88f0f7U,
  0xbce676ff3dc73a35U, 0x3e0ebb8c3aa5a959U, 0x3d1975a03dc1f88bU, 0xbd485f5f3dae081fU,
  0xbcfa8e43bda6b2e4U, 0xbdd2cc573ccf9846U, 0x3c3e00babdbb731fU, 0xbc93c7c23dbda13dU,
  0x3d96a3c8bb049aedU, 0xbd06f5303d0646b5U, 0xbca89754bd930d2cU, 0x3dcc62c63d709293U,
  0xbdae4c3c3b5d8116U, 0xbe23afc5bd2e0186U, 0xbdb41c963cd98481U, 0xbcc279db3b979ddcU,
  0x3cd9e7ffbc90bd55U, 0xbd130476bc246176U, 0xbdf0b5fcbca72808U, 0x3df969c23ce97938U,
  0xba9146ecbc291b37U, 0xbcbb066d3b07e896U, 0xbd2ecc9dbcdd92f0U, 0x3dd611d83d869838U,
  0xbd738addbcc2e618U, 0xbdcd42b9bcc97939U, 0x3d44fd9ebd162417U, 0x3927c40b3d1a75f5U,
  0xbcb43d5bbcda61a0U, 0xbdf7834e3b0f1373U, 0xbd99aec0bd479bc9U, 0x3db65ea1bcc6914cU,
  0x3db6049fbd71505bU, 0x3d41fe4cbcd5d770U, 0xbdb67c503d37e6a5U, 0x3d961f713dc0a2b5U,
  0xbd36453cbd449babU, 0xbdf3d464bd3032f9U, 0xbc92820b3d06cf09U, 0xbb17559dba938ce8U,
  0xbd8b4622bc488f2cU, 0x3c85070dbdc9d0e5U, 0x3d52d49cbd84adb3U, 0x3c4613623e0849b3U,
  0xbca78f0ebc8e5921U, 0xbdc59d89bca955cbU, 0x3d7ad71bbd9fdde8U, 0xbbae85043d84ac6bU,
  0xbd578927bdda09a3U, 0xbc90ebd5bd5ee04bU, 0xbd2327fabc6693edU, 0xbd3e85553cbabccfU,
  0xbd25e013bcd86d05U, 0x3d042aa53ce4d8edU, 0x3ccf33a23c6d7a22U, 0xbcc5d84b3d0e5083U,
  0xbd77f12ebd01efcbU, 0xbdee3ce6bdddfcc8U, 0x3d6dad0fbdc8626dU, 0x3dcd099fbcd032f4U,
  0xbd6c0804bd6e0606U, 0xbdd1bfc33c54aa05U, 0xbdac8c16bdb54a0eU, 0x3d715ecd3c1cdb38U,
  0x3c8b30a2bdca8613U, 0xbd1138a03d29595aU, 0xbc8035dd3d031a0dU, 0x3da6220b3d327998U,
  0x3da685673c60b713U, 0x3ce61ac9bdd5ca97U, 0x3d025f78bd019280U, 0xbaa7a4333d385912U,
  0xbca068233d716cfeU, 0xbe03ea00bd0ea37eU, 0xbb4c4ae3bdbefacbU, 0x3d7c3c133dc1239fU,
  0x3dd13121bd52b2d5U, 0xbb870ff4bd96238eU, 0x3d1ce920bddc5462U, 0x3dc020a1bc5c63b5U,
  0x3d06cf2dbd8ef004U, 0xbc0452c9bdbc1802U, 0x3c574481bca0564aU, 0xbd1982b03d936f00U,
  0x3d0625eebe007731U, 0xbd2527643c482d82U, 0xbdbcbd2bbd924526U, 0xbd0e94bb3d989977U,
  0x3d05e035bdcc494dU, 0xbcf3a3663d328a92U, 0xbd49d932bde6d983U, 0x3db1b9e03d8a880cU,
  0xbd9b8337bd3127f0U, 0xbe05e9363ade11aaU, 0xbda8c0e4bcdb6e92U, 0xbc67afd33d50d44dU,
  0x3c504ca43c30615eU, 0x3bca508a3cefb0aeU, 0x3cd8b4563d299924U, 0x3e032f77bcf5a431U,
  0x3bc0737b3cf34fe6U, 0xbda01fc9bd52822dU, 0x3bd098eabd5e5c2dU, 0x3dff723d3d7cab54U,
  0xbd2cbf2ebd14b75dU, 0xbd6944ddbd8fb8bbU, 0x3c673b6abd3bc838U, 0x3cedd8db3d96a0c7U,
  0xbc5f91ec3cae6e8cU, 0xbd77aebabc78cf88U, 0x3ccb2c8bbd017051U, 0x3d1418f73dd638f2U,
  0xbcf326c7bc9dcb9dU, 0xbd356ea8bda256d6U, 0x3d2087fe3c9bed29U, 0x3ceae991bd5bec35U,
  0x3ddb90c5bd0a2e4aU, 0xbd85be08bd8b3ab9U, 0xbdbe5be1bd9f227aU, 0x3db00ee43b9b97a0U,
  0x3daeadb9bda979e3U, 0x3d2938a7bd978294U, 0xbd39b0853cb74f3dU, 0x3e09e25a3de5d4a5U,
  0x3dc6aa8ebdca37abU, 0xbdd9fd5f3cd543dcU, 0x3d135e9d3d102602U, 0x3cab95923d9c4882U,
  0x3d53912fbd6714c9U, 0xbcbe7ceebda6d089U, 0xbd372f443d4a589bU, 0x3de2494d3d5cf388U,
  0xbc1f16a53d904226U, 0xbca36d18bd7388e1U, 0x3d88070cbdc1413dU, 0x3cc01a983c01515fU,
  0xbbab6c49bd73a0c7U, 0xbd7df19abdc226d4U, 0xbc75a08cbde34584U, 0x3d4d3f1e3de6cb6aU,
  0x3bdfc6cabcd78fdfU, 0xbdac29fabdd3b48fU, 0x3cb6ac0fbdcc61d6U, 0x3c2ec72a3d164c5cU,
  0x3d59c052bb49ee9dU, 0xbd1da84cbdbb8561U, 0xbd7ca4b7bd08a2bfU, 0xbc12ed633d34d902U,
  0xbbe42166bd48422bU, 0xbdb87543bdd60175U, 0xbd5fe4393cb62769U, 0x3d4925fcbd16c21bU,
  0x3d81b79dbcc5dc89U, 0x3cc0ddaf3ce6d012U, 0x3d059176bd4f2093U, 0x3d447a95bccce4cfU,
  0x3d83cfae3cd07c66U, 0xbd990e69bd62cfc7U, 0x3caf3835bdc9e9aeU, 0x3db22392bd699384U,
  0x3be490203d14c329U, 0xbc06be59bdd0ef08U, 0x3c802bbabcf1f6ffU, 0x3dc706a2bda7bd48U,
  0xbcae2792bdace354U, 0xbd237078bc535d73U, 0xbc5094673d3e6911U, 0x3ceca7eb3d9ebb32U,
  0x3d359c4c3d7e00d3U, 0xbbd023a23cb3cfdcU, 0x3b3370793d0105efU, 0x3cc701533d7159e9U,
  0xbcb69bd73d2d65c4U, 0x3d225cecbdd065f5U, 0xbd7d2e73bdc80a87U, 0x3d80b2683d21b8afU,
  0x3d950ecd3d970156U, 0xbb3b3166bd6dad69U, 0x3d28f12ebe07baf2U, 0xbd1204d33d8522d9U,
  0x3cfd39233d2ec547U, 0x3d2564ee3a8a05d0U, 0x3c22407b3cdc9910U, 0x3dafb1723b56148aU,
  0x3d972fd13d319552U, 0xbdd54749bc66aa6aU, 0x3ce86e5ab93e0ca1U, 0x3de798f33c5d99e1U,
  0x3d78c3b33d6ede9bU, 0xbc412fd5bc767aeaU, 0xbc992999bd8de808U, 0x3da5df41bda11332U,
  0x3c1bf846bc9962e7U, 0xbde79e30be08edefU, 0xbd2ac6c7bd7362dbU, 0x3def9e1f3d94921dU,
  0x3d56f9443bd9d45eU, 0xbd075a8abdbacbc4U, 0xbd3ea168bdeed326U, 0x3c8ee10ebd992c8cU,
  0xbd3ce783bc98c231U, 0xbd66565bbd97f0faU, 0x3ca3f1e8bd5ab237U, 0x3bcad24dbcc5f667U,
  0xbd132c113c82d234U, 0xbdaf358abdb8b19eU, 0xbd909871bd05877dU, 0x3d3698ddbcb2a19bU,
  0x3a43a88dbbc83331U, 0xbc88c6c0bdaec4a3U, 0x3c8056aabdc0e7c0U, 0xbd55afd63da24c4fU,
  0x3da71975bbdc7b17U, 0xbd95fd1abde04271U, 0xbbb13ddbbddc073bU, 0x3dcc2ac83de5c732U,
  0xbae8d5edbd85a648U, 0x3c516003bd438fe5U, 0xbdcc4d39bd2f274bU, 0x3de13969bcdc3005U,
  0x3cdd9531bcd6c63fU, 0xbd079e5fbe19dc37U, 0xbe0216cebcef1392U, 0x3de1ccdc3de37278U,
  0xbc8136c0bca232feU, 0x3b7e360abd8e8149U, 0x3d6aa7193cae759cU, 0x3c46c88d3da98e68U,
  0xbc4ae3f43d47f700U, 0xbdf0af973c819919U, 0xbd18f717bcb94156U, 0xbb9d486dbd0d91c7U,
  0xbd31f2503d810fecU, 0xbd7ec546bd307a5aU, 0xbdfa2ac03d2ce541U, 0x3c1a35b13d35b54bU,
  0x3da8308e3da30cacU, 0xbb897b9cbdef8197U, 0xbdcc060cbccad8bbU, 0x3d8c73be3e0fbc5bU,
  0x3cb853d239305219U, 0x3d35294d3cd15b32U, 0x3c9c87273b1fd318U, 0x3d8e90c73d9e5fc3U,
  0x3d9c4a0a3d90ac8dU, 0xbc72af1c3d076072U, 0xbdceba823cd58c08U, 0x3c9495c53b84ab33U,
  0xbd00039d3dc40b88U, 0xbdca6a3f3d125106U, 0x3c90e552bd40006aU, 0x3ddddc4cbd1998f1U,
  0x3cf423dc3d37a1b7U, 0xbc0be67ebd941bb4U, 0x3d19b80fbe01c0e6U, 0x3d325478baa62992U,
  0x3dc1a8553b260d3bU, 0x3d0b5aa0bcc5e168U, 0xba673acb3d249066U, 0xbd16ce613d196e19U,
  0x3b59f0e93a02bc72U, 0xbd107908bd925d40U, 0xbdb99149bc3e1e03U, 0x3ce343bf3cb669aeU,
  0xbd4d83a83d70b62eU, 0xbcfad6203c62a429U, 0xbd2954f6bc6f4f5cU, 0x3b83e3da3de887f6U,
  0x3da07130bca034c9U, 0xbdc2ffa73c6550f4U, 0xbd1da7da3cdc73d1U, 0x3dc3aa733d888722U,
  0x3d8aeebebc07a6e9U, 0xbdb7f89e3c53a324U, 0xbdb6e010bc7a844fU, 0x3cb3b1583c1c0027U,
  0x3d44bfa03dbd3353U, 0xbdcc8d233ca4a170U, 0xbdc61c9fbda62e6fU, 0xbccb9fad3c1ba00cU,
  0x3d4dfc2b3d902384U, 0xbdd10677bdf477b1U, 0xbda6483d3ce90adaU, 0x3d86c6c43d05745aU,
  0x3dbbefb53cd17f63U, 0xbd6053ffbbdbb482U, 0xbbd6d3e53aa5f633U, 0x3ddac3eb3b259908U,
  0xbd09842e3d60e882U, 0xbd14d004bd4cb430U, 0xbdfa9fd2bd1dd952U, 0x3d87da86bba58074U,
  0x3da678e8bda70c60U, 0xbc2328433c81b2dfU, 0xbdb9fc74bdb3d23eU, 0xbc240ceb3aba347cU,
  0x3cac1f873d1e308cU, 0xbd4d65b0bc416a5cU, 0xbda5eed93c5e6c5bU, 0x3db587ecbbc2f113U,
  0x3dabea78be01afa0U, 0xbd1d4359bbf0a360U, 0xbdb1b8583cdc008dU, 0x3d83186a3cb717fdU,
  0x3d939f2c3dab82b1U, 0xbda89557bd7496a2U, 0x3d2580703cfbeaacU, 0x3c4c607b3ce5efacU,
  0x3c83ed11bbabbe10U, 0xbcdc3c3bbd9843ecU, 0x38a01be7be04ca9fU, 0x3cb11c6b3d34eb3eU,
  0x3d9b1be13c9981d0U, 0xbda17174bd966719U, 0x3d534d19bcb64633U, 0xbc91ad0e3df526dcU,
  0x3ce4273e3d639156U, 0xbd6879bfbb5e0eb1U, 0xbcf41cf4bd6029a1U, 0x3d0b86d4bbf71831U,
  0xbc026844bbf1d7b4U, 0xbd9677f6be16c2afU, 0xbd02e3c9bdc036b5U, 0xbc4717493c9294e6U,
  0x3d851da33bb2d82eU, 0x3cc21d343b72a546U, 0xbd73d266bdea7c30U, 0xbd061c63bcb8146aU,
  0x3c9480563cc48a47U, 0xbc834e7fbbe36f7dU, 0xbe07c91b3d530ca1U, 0xbc9e5f643e1bda3dU,
  0xbcbd607cbd6112deU, 0x3c3cc7b43c9a7f4dU, 0xbd992fcbbde0b8daU, 0x3d90e6f93c809ebeU,
  0x3d3c792fbd4ebc4aU, 0xbd77ad8ebdba3e59U, 0xbd149449bd2f948bU, 0x3cba0631bc24c288U,
  0x3d9c8884bd7d65faU, 0xbc9957e4bd353c9aU, 0xbdcc2ce1bde5498cU, 0x3d80f6d43dbcf594U,
  0x3d0cefc8bdaf6c4cU, 0xbcf87a67be101be1U, 0x3af195c4bd55ec30U, 0x3b94163b3bc2739fU,
  0xbc44ea21bd9ba18fU, 0xbb5e7bc5be0469feU, 0xbb305ee5bd884ed5U, 0xbbc26b46bc9e59a0U,
  0x3abe0bc83d716244U, 0xbd7a074cbcc9b3b7U, 0xbdbcfbeebd7db325U, 0x3dad43fcbcd5be98U,
  0x3d09a81b3ca65cceU, 0xbdd3bbeebcf5aed8U, 0xbd218636bd6a29d3U, 0x3d31995d3df4d08fU,
  0xbc69950ebd867771U, 0x3b2b9a993ce15614U, 0xbe0ceec1bd90d772U, 0x3da7b6733dab90a6U,
  0xbd6a3dc5bdcb5307U, 0xbd632f54bc9b9fe7U, 0xbac680edbde12969U, 0x3d66a8573ca5276eU,
  0xbd88a8debd35a9e4U, 0xbd9c8dbbbd98bd2bU, 0xbe017167bd829696U, 0xbc9e5713bdb047caU,
  0xbcbe1a11bccf0f71U, 0xbcf52b59bc8919b5U, 0xbe0f9fa8be179c92U, 0x3d9081e73c579f14U,
  0x3d4a08c1bda5f470U, 0xbe1ee79cbd182dc4U, 0x3c1f529cbd444047U, 0x3d89d0943a637974U,
  0x3d9bc8c7be4d59d9U, 0xbdad1c49bd53877fU, 0x3bb58e23bde298d4U, 0x3c4ef4bebb12583aU,
  0x3cae06cdbdaaf872U, 0xbd4e560abb156a3eU, 0xbdd046b8bdc0e54eU, 0x3a287602bb0658c3U,
  0x3c4f1b8cbce3275fU, 0xbd83f80abe17284dU, 0xbd83bf82bde28044U, 0x3d79fe9b3d880513U,
  0x3cf68efbbd801f12U, 0xbde0d91fbe03c34cU, 0xbc866098bde797cbU, 0x3b89edac3bc59715U,
  0x3d8f8d26bde43acaU, 0x3ca5a170be0e4a1bU, 0x3b6beda8ba90c0e8U, 0xbd577ed43d136959U,
  0xbd08fbb6bdfe0d32U, 0xbd4ff724bd8e24c0U, 0xbd1e6e1fbdd9454dU, 0x3ce03a023de13c92U,
  0xbb603121bcf68bd2U, 0x3b4b5080bdbc4ebeU, 0xbe01c512bd33230aU, 0x3d4262e4bcd4839fU,
  0x3d815442bd81beb0U, 0x3c967c0bbe3a101cU, 0xbd595e793cc10b96U, 0x3d3c2c51baaf6e41U,
  0x3d565fa9bd7527fdU, 0xbdca64c5bcfee036U, 0xbd9aa99abde71f28U, 0x3d458cba3db394edU,
  0xba55a3e5bde3184fU, 0x3d30ac26be040060U, 0xbdd68cc53cce1d16U, 0x3d5cc4a9bd1f2c44U,
  0x3d6208983c3cba22U, 0xbd15136ebd424e87U, 0xbdfc8405be17275bU, 0x3c8a041a3d00cadcU,
  0x3dab2ccfbd7ee005U, 0x3d1a2971bd3ad4fbU, 0xbe10bba1bdd44fc2U, 0x3d9f89143bb02b77U,
  0x3d82b8dc3d83f427U, 0xbde76db4bcc28ab4U, 0xbd7c4e73bd7bedc9U, 0x3cff3648bcc9896dU,
  0x3d98077e3d5fad03U, 0xbbc7a752be2143fcU, 0xbd95524dbcf7215fU, 0xbcb7366e3d963b9dU,
  0x3c76fbf7bc73a87fU, 0xbc9170f6bc647522U, 0xbb9b6fd6bc4c8eb5U, 0x3cf340633c629925U,
  0x3d5e3829bdaa6325U, 0x3cff6ad2bd5aafabU, 0xbd80f9a3bd9f609aU, 0x3cab391ebb3ea257U,
  0x3d2c23053d363181U, 0x3cd53ce7be17623dU, 0xbdba478abe0afa70U, 0x3d9446e8bb65b60cU,
  0x3d324ae3bdf65fa0U, 0xbd66dd2dbe01eb3fU, 0xbdaf71ffbc188056U, 0x3cdd906e3bce9082U,
  0xbaad9a20bde948cbU, 0xbd05e2bebdf71916U, 0xbd580d563c696094U, 0x3d2c3c5fbbb57c8fU,
  0x3d43424fbd2f9bb3U, 0xbc999ce9bda4f193U, 0xb80fed32bdc681c2U, 0x3c9a684d3d707518U,
  0x3ddecbd93c7c8da0U, 0xbccad5c4bdc6b843U, 0xbcc23a24bd66af67U, 0x3bc53854be091fe4U,
  0xbbb5c5313d5f4348U, 0xbd66fae5bd87b650U, 0xbe2f6c263cebf367U, 0xbb0301bcbdda7af8U,
  0x3dc675bcbd26c00bU, 0x3d094ecabe02b7e2U, 0xbd94858ebdda1c06U, 0x3db9c5fdbdb0d5fcU,
  0xbc7a5b5d3c1d0b06U, 0xbd8f9846bdbe3566U, 0xbd13d18bbd8d22beU, 0x3ce61611bdc05ccdU,
  0x3db5246dbd0a685aU, 0xbdc80ae73c8dbe92U, 0xbd1fd6d1bd0508ccU, 0x3ce6448abd425661U,
  0x3df323dfbcc1851cU, 0x3c91adf7bc985bccU, 0xbd9c0b63be030c8eU, 0xbd8c0cc5bbb484acU,
  0x3d820074bd4da7daU, 0xbd3ad08ebdf57612U, 0xbddaedcfbd0dabc5U, 0xba04f79fbc9519c7U,
  0x3c0fb872bdca674eU, 0xbd51342abca90adbU, 0xbd09b94abdc42003U, 0xbd36f222bc7df01cU,
